#ifndef OPEN_HAND_MODEL_DATA_H_
#define OPEN_HAND_MODEL_DATA_H_

#include <cstdint>

const uint8_t open_hand_model_data[] = {
  0x20, 0x00, 0x00, 0x00, 0x54, 0x46, 0x4c, 0x33, 0x00, 0x00, 0x00, 0x00, 0x14, 0x00, 0x20, 0x00, 
  0x1c, 0x00, 0x18, 0x00, 0x14, 0x00, 0x10, 0x00, 0x0c, 0x00, 0x00, 0x00, 0x08, 0x00, 0x04, 0x00, 
  0x14, 0x00, 0x00, 0x00, 0x1c, 0x00, 0x00, 0x00, 0x80, 0x00, 0x00, 0x00, 0xd8, 0x00, 0x00, 0x00, 
  0x24, 0x1a, 0x00, 0x00, 0x34, 0x1a, 0x00, 0x00, 0xdc, 0x2c, 0x00, 0x00, 0x03, 0x00, 0x00, 0x00, 
  0x01, 0x00, 0x00, 0x00, 0x04, 0x00, 0x00, 0x00, 0x7a, 0xe5, 0xff, 0xff, 0x0c, 0x00, 0x00, 0x00, 
  0x1c, 0x00, 0x00, 0x00, 0x38, 0x00, 0x00, 0x00, 0x0f, 0x00, 0x00, 0x00, 0x73, 0x65, 0x72, 0x76, 
  0x69, 0x6e, 0x67, 0x5f, 0x64, 0x65, 0x66, 0x61, 0x75, 0x6c, 0x74, 0x00, 0x01, 0x00, 0x00, 0x00, 
  0x04, 0x00, 0x00, 0x00, 0x9c, 0xff, 0xff, 0xff, 0x12, 0x00, 0x00, 0x00, 0x04, 0x00, 0x00, 0x00, 
  0x05, 0x00, 0x00, 0x00, 0x64, 0x65, 0x6e, 0x73, 0x65, 0x00, 0x00, 0x00, 0x01, 0x00, 0x00, 0x00, 
  0x04, 0x00, 0x00, 0x00, 0x62, 0xe6, 0xff, 0xff, 0x04, 0x00, 0x00, 0x00, 0x07, 0x00, 0x00, 0x00, 
  0x69, 0x6e, 0x70, 0x75, 0x74, 0x5f, 0x31, 0x00, 0x02, 0x00, 0x00, 0x00, 0x34, 0x00, 0x00, 0x00, 
  0x04, 0x00, 0x00, 0x00, 0xdc, 0xff, 0xff, 0xff, 0x15, 0x00, 0x00, 0x00, 0x04, 0x00, 0x00, 0x00, 
  0x13, 0x00, 0x00, 0x00, 0x43, 0x4f, 0x4e, 0x56, 0x45, 0x52, 0x53, 0x49, 0x4f, 0x4e, 0x5f, 0x4d, 
  0x45, 0x54, 0x41, 0x44, 0x41, 0x54, 0x41, 0x00, 0x08, 0x00, 0x0c, 0x00, 0x08, 0x00, 0x04, 0x00, 
  0x08, 0x00, 0x00, 0x00, 0x14, 0x00, 0x00, 0x00, 0x04, 0x00, 0x00, 0x00, 0x13, 0x00, 0x00, 0x00, 
  0x6d, 0x69, 0x6e, 0x5f, 0x72, 0x75, 0x6e, 0x74, 0x69, 0x6d, 0x65, 0x5f, 0x76, 0x65, 0x72, 0x73, 
  0x69, 0x6f, 0x6e, 0x00, 0x16, 0x00, 0x00, 0x00, 0x48, 0x19, 0x00, 0x00, 0x40, 0x19, 0x00, 0x00, 
  0x28, 0x19, 0x00, 0x00, 0x0c, 0x19, 0x00, 0x00, 0xdc, 0x18, 0x00, 0x00, 0x4c, 0x18, 0x00, 0x00, 
  0x3c, 0x06, 0x00, 0x00, 0xec, 0x05, 0x00, 0x00, 0x5c, 0x01, 0x00, 0x00, 0x2c, 0x01, 0x00, 0x00, 
  0xd4, 0x00, 0x00, 0x00, 0xcc, 0x00, 0x00, 0x00, 0xc4, 0x00, 0x00, 0x00, 0xbc, 0x00, 0x00, 0x00, 
  0xb4, 0x00, 0x00, 0x00, 0xac, 0x00, 0x00, 0x00, 0xa4, 0x00, 0x00, 0x00, 0x9c, 0x00, 0x00, 0x00, 
  0x94, 0x00, 0x00, 0x00, 0x8c, 0x00, 0x00, 0x00, 0x6c, 0x00, 0x00, 0x00, 0x04, 0x00, 0x00, 0x00, 
  0x2e, 0xe7, 0xff, 0xff, 0x04, 0x00, 0x00, 0x00, 0x58, 0x00, 0x00, 0x00, 0x0c, 0x00, 0x00, 0x00, 
  0x08, 0x00, 0x0e, 0x00, 0x08, 0x00, 0x04, 0x00, 0x08, 0x00, 0x00, 0x00, 0x10, 0x00, 0x00, 0x00, 
  0x28, 0x00, 0x00, 0x00, 0x00, 0x00, 0x06, 0x00, 0x08, 0x00, 0x04, 0x00, 0x06, 0x00, 0x00, 0x00, 
  0x04, 0x00, 0x00, 0x00, 0x01, 0x00, 0x00, 0x00, 0xeb, 0x03, 0x00, 0x00, 0x00, 0x00, 0x0a, 0x00, 
  0x10, 0x00, 0x0c, 0x00, 0x08, 0x00, 0x04, 0x00, 0x0a, 0x00, 0x00, 0x00, 0x02, 0x00, 0x00, 0x00, 
  0x02, 0x00, 0x00, 0x00, 0x04, 0x00, 0x00, 0x00, 0x06, 0x00, 0x00, 0x00, 0x32, 0x2e, 0x31, 0x34, 
  0x2e, 0x30, 0x00, 0x00, 0x92, 0xe7, 0xff, 0xff, 0x04, 0x00, 0x00, 0x00, 0x10, 0x00, 0x00, 0x00, 
  0x31, 0x2e, 0x31, 0x34, 0x2e, 0x30, 0x00, 0x00, 0x00, 0x00, 0x00, 0x00, 0x00, 0x00, 0x00, 0x00, 
  0xc8, 0xd5, 0xff, 0xff, 0xcc, 0xd5, 0xff, 0xff, 0xd0, 0xd5, 0xff, 0xff, 0xd4, 0xd5, 0xff, 0xff, 
  0xd8, 0xd5, 0xff, 0xff, 0xdc, 0xd5, 0xff, 0xff, 0xe0, 0xd5, 0xff, 0xff, 0xe4, 0xd5, 0xff, 0xff, 
  0xe8, 0xd5, 0xff, 0xff, 0xd2, 0xe7, 0xff, 0xff, 0x04, 0x00, 0x00, 0x00, 0x48, 0x00, 0x00, 0x00, 
  0xa0, 0xb1, 0x1d, 0x64, 0x7f, 0xfb, 0x8c, 0xdb, 0xe0, 0x7e, 0x7b, 0x7f, 0xfd, 0x47, 0x7e, 0x64, 
  0x64, 0x76, 0xad, 0x17, 0x4c, 0x81, 0x22, 0x22, 0x1d, 0x09, 0x25, 0xca, 0xd5, 0x05, 0xdf, 0x7f, 
  0xc8, 0x14, 0x40, 0xce, 0x4a, 0x91, 0xb5, 0x3f, 0x81, 0x9d, 0xde, 0xf2, 0xca, 0x7f, 0x62, 0x12, 
  0x50, 0x0e, 0x15, 0x0b, 0xd2, 0x11, 0x16, 0x9a, 0x81, 0x33, 0x2c, 0xf8, 0xc2, 0xe0, 0x7e, 0xa9, 
  0x90, 0xcd, 0xc7, 0xa0, 0x98, 0xb9, 0x93, 0x81, 0x26, 0xe8, 0xff, 0xff, 0x04, 0x00, 0x00, 0x00, 
  0x20, 0x00, 0x00, 0x00, 0x1c, 0x2f, 0x00, 0x00, 0x2d, 0xe9, 0xff, 0xff, 0x82, 0xfb, 0xff, 0xff, 
  0xba, 0x01, 0x00, 0x00, 0xba, 0xba, 0x00, 0x00, 0xcd, 0xda, 0xff, 0xff, 0xc3, 0x2e, 0x00, 0x00, 
  0x7d, 0x03, 0x00, 0x00, 0x52, 0xe8, 0xff, 0xff, 0x04, 0x00, 0x00, 0x00, 0x80, 0x04, 0x00, 0x00, 
  0x13, 0x18, 0xf8, 0x30, 0x00, 0xf5, 0x2b, 0xa6, 0x2c, 0xef, 0xff, 0x42, 0x00, 0xf1, 0x21, 0xa4, 
  0x0f, 0x09, 0x35, 0x44, 0x0d, 0xf9, 0x02, 0x81, 0x02, 0x10, 0x01, 0x51, 0xfa, 0xfb, 0x19, 0x92, 
  0x0e, 0xf0, 0xf9, 0x39, 0x31, 0x18, 0x0d, 0xa0, 0x37, 0x1e, 0x2e, 0x3c, 0xe9, 0x22, 0x28, 0x8c, 
  0x02, 0x0e, 0x03, 0x3f, 0xf4, 0xf4, 0x03, 0xaf, 0x1b, 0xf4, 0x1e, 0x39, 0x45, 0xea, 0x39, 0xb1, 
  0x07, 0xed, 0x33, 0x50, 0xfa, 0xfc, 0x18, 0xa9, 0xfb, 0xf4, 0xf3, 0xba, 0xe7, 0xfe, 0x07, 0x7e, 
  0xe5, 0xf4, 0xf8, 0xe5, 0xf3, 0xf5, 0x02, 0x7f, 0xdc, 0x12, 0x02, 0xeb, 0xea, 0xf5, 0x13, 0x59, 
  0x02, 0xee, 0xfd, 0xe6, 0x0c, 0xf5, 0x0d, 0x7c, 0x00, 0x09, 0xfb, 0xfb, 0xfd, 0xf1, 0xf4, 0x73, 
  0xda, 0x0e, 0x04, 0xfc, 0xe9, 0x00, 0xf9, 0x38, 0x00, 0xec, 0x13, 0xf3, 0x13, 0xf6, 0xf8, 0x75, 
  0xf6, 0x11, 0x0e, 0xf0, 0x19, 0x09, 0x02, 0x6e, 0xe4, 0x10, 0x00, 0xf6, 0xbd, 0x14, 0xe8, 0x4a, 
  0x22, 0xdd, 0xf5, 0xba, 0x26, 0xcc, 0x14, 0x73, 0xf0, 0x13, 0x09, 0x9f, 0x2b, 0xe7, 0x04, 0x7f, 
  0xe7, 0x23, 0x1b, 0xbb, 0xeb, 0x17, 0xba, 0x60, 0xf1, 0x27, 0x14, 0xbb, 0x1e, 0xd8, 0x08, 0x6e, 
  0xf2, 0xe8, 0xea, 0xb9, 0x04, 0xdf, 0xcc, 0x41, 0x1c, 0xfb, 0xef, 0x85, 0x2a, 0xee, 0xd8, 0x59, 
  0x18, 0x25, 0xe5, 0x00, 0x09, 0x0d, 0x28, 0x42, 0xe5, 0xf3, 0x08, 0xcd, 0x18, 0x17, 0xd9, 0x41, 
  0x11, 0xf1, 0xc1, 0xd3, 0x37, 0xf3, 0xf2, 0x3e, 0xf0, 0xf4, 0x1a, 0x10, 0x05, 0xf2, 0x45, 0x4a, 
  0x8c, 0xcf, 0x29, 0x22, 0x98, 0xe7, 0x09, 0x41, 0xb1, 0xf6, 0x1b, 0x2b, 0xdd, 0xe5, 0xee, 0x4a, 
  0xb9, 0x0f, 0x11, 0x39, 0xcc, 0x00, 0x43, 0x36, 0xb5, 0x1e, 0x38, 0x7f, 0xa7, 0xec, 0x43, 0x31, 
  0xaa, 0x1c, 0xe9, 0x59, 0xf3, 0xfe, 0x01, 0x2d, 0x20, 0x2c, 0xff, 0x52, 0x97, 0x02, 0x25, 0xf1, 
  0xf6, 0x24, 0x03, 0x61, 0xa1, 0x14, 0x2c, 0x12, 0xec, 0x0a, 0x01, 0x40, 0xd4, 0xed, 0x48, 0xeb, 
  0x4a, 0xf4, 0x0a, 0x3f, 0x33, 0xfb, 0x22, 0xd6, 0x17, 0x03, 0x15, 0x46, 0x14, 0xe3, 0x21, 0xb3, 
  0x33, 0x02, 0xfe, 0x7d, 0x1f, 0x15, 0x31, 0x94, 0x35, 0x2b, 0x3d, 0x4a, 0x0b, 0x20, 0x2b, 0xca, 
  0x3b, 0xfa, 0x0c, 0x10, 0x36, 0x09, 0x49, 0x90, 0x45, 0x1c, 0x01, 0x53, 0x42, 0xfd, 0x27, 0x8e, 
  0x1e, 0x1e, 0x1e, 0x7f, 0x18, 0xde, 0x49, 0xa8, 0x6a, 0xd6, 0xec, 0x5b, 0x69, 0x20, 0x45, 0xe3, 
  0x23, 0xf4, 0x3e, 0x57, 0x2e, 0xec, 0x15, 0xbc, 0xec, 0x06, 0xdd, 0xb0, 0x0b, 0xdf, 0x0b, 0x7d, 
  0x18, 0x19, 0xea, 0x9d, 0x27, 0xd6, 0xfc, 0x7a, 0x03, 0xf4, 0xd1, 0x9e, 0x1f, 0xd4, 0x07, 0x73, 
  0x24, 0x11, 0xd7, 0xa1, 0x17, 0xc8, 0x12, 0x42, 0x0d, 0x0c, 0xde, 0x89, 0x03, 0xc2, 0xef, 0x6d, 
  0xef, 0xe8, 0xf4, 0x81, 0x37, 0xfa, 0xf6, 0x4e, 0xfb, 0xeb, 0xfd, 0xd2, 0xfb, 0xc2, 0x2c, 0x51, 
  0x19, 0xf4, 0xf2, 0xdf, 0x38, 0xe5, 0x09, 0x6a, 0x0c, 0x38, 0x2d, 0xb8, 0xff, 0x01, 0xf6, 0x5c, 
  0xfa, 0x19, 0x31, 0x26, 0xe5, 0x01, 0x3d, 0x94, 0x31, 0xed, 0x11, 0x4c, 0x0e, 0x15, 0x36, 0x99, 
  0x07, 0x04, 0x14, 0x1c, 0xe0, 0xf6, 0x1d, 0xa0, 0x06, 0x1f, 0x1b, 0x56, 0xda, 0x0e, 0xf6, 0xad, 
  0x21, 0x05, 0xe5, 0x3e, 0x11, 0xed, 0x10, 0x8e, 0x23, 0x07, 0x02, 0x24, 0x01, 0x1d, 0x15, 0xa4, 
  0x11, 0x10, 0x16, 0x66, 0xe7, 0xf8, 0x27, 0xa1, 0x1d, 0xe9, 0x08, 0x7f, 0x21, 0xe3, 0x24, 0xb3, 
  0x2e, 0x03, 0x30, 0x58, 0x18, 0xe8, 0x00, 0x8b, 0x1b, 0xe3, 0x53, 0x23, 0x13, 0x06, 0x1e, 0x93, 
  0x0b, 0x1c, 0x3d, 0x46, 0xfe, 0x27, 0x22, 0xa5, 0xf6, 0xe5, 0x17, 0x5f, 0x08, 0xf3, 0x1f, 0x96, 
  0x11, 0x08, 0x1d, 0x4c, 0xea, 0x18, 0x3f, 0xac, 0x1e, 0x1e, 0x51, 0x45, 0xc7, 0xf0, 0x1c, 0xaa, 
  0x34, 0xef, 0x13, 0x42, 0x16, 0x15, 0x20, 0x8b, 0x1b, 0xe5, 0x2f, 0x76, 0xee, 0xe9, 0x14, 0x85, 
  0x0e, 0x09, 0x2f, 0x57, 0x13, 0x12, 0x0a, 0x98, 0x05, 0xee, 0x37, 0x68, 0x2c, 0xe3, 0x2a, 0x81, 
  0x0c, 0x24, 0xf3, 0xac, 0x2f, 0xfb, 0xf1, 0x38, 0x19, 0xfe, 0xfd, 0x84, 0x1f, 0x1b, 0xed, 0x39, 
  0xeb, 0x17, 0xe5, 0xb4, 0x0f, 0x19, 0xd0, 0x3d, 0x1c, 0xff, 0xf5, 0x81, 0x2a, 0xfe, 0xe2, 0x2f, 
  0x02, 0xe7, 0xf9, 0xae, 0x17, 0x07, 0xd9, 0x3a, 0x05, 0x0b, 0xed, 0x9b, 0x31, 0xfd, 0x00, 0x43, 
  0x2b, 0xe6, 0xe4, 0xba, 0x19, 0xf9, 0xe8, 0x3c, 0x1d, 0xe4, 0xe9, 0xac, 0xfc, 0xf3, 0x06, 0x56, 
  0xf2, 0x09, 0xcf, 0xa6, 0x2c, 0xd8, 0x0d, 0x2e, 0x05, 0x02, 0xbb, 0xb0, 0x32, 0x00, 0x13, 0x7f, 
  0x32, 0x09, 0xd1, 0xa1, 0x0a, 0x0a, 0x1a, 0x58, 0xf5, 0xfd, 0xd8, 0xbe, 0x33, 0xe1, 0x06, 0x7e, 
  0x04, 0xfe, 0xc1, 0xbd, 0x2f, 0x21, 0x22, 0x78, 0x16, 0xeb, 0xa5, 0x96, 0x07, 0xe2, 0xe1, 0x42, 
  0xf4, 0x01, 0xc2, 0xa1, 0x15, 0xd8, 0xfe, 0x74, 0x08, 0xee, 0xcd, 0xb1, 0xff, 0x01, 0x19, 0x70, 
  0x22, 0x1d, 0xa7, 0xac, 0x24, 0xef, 0x05, 0x53, 0x35, 0xf9, 0xe2, 0xc7, 0x0e, 0xdd, 0xe6, 0x4a, 
  0x2a, 0xfa, 0x17, 0x1c, 0x1a, 0x13, 0x11, 0x96, 0x32, 0x0c, 0x28, 0x4f, 0x0a, 0x17, 0x31, 0xae, 
  0xf2, 0x18, 0xee, 0x31, 0x09, 0xf3, 0x0a, 0x82, 0x2e, 0xfe, 0x0a, 0x46, 0xed, 0x0c, 0x0f, 0xb6, 
  0x27, 0xfd, 0x03, 0x4c, 0xf1, 0x05, 0x1c, 0x8e, 0x2f, 0xe4, 0x1f, 0x46, 0x14, 0xfa, 0x19, 0x81, 
  0xff, 0xe4, 0x1e, 0x5f, 0xed, 0x05, 0x06, 0xa1, 0x06, 0x13, 0x1d, 0x35, 0x08, 0x14, 0x1b, 0x98, 
  0x2f, 0xfa, 0x17, 0x49, 0xff, 0xfd, 0x1f, 0xbe, 0x0a, 0xf3, 0xff, 0x81, 0xdc, 0xe2, 0xfd, 0x52, 
  0x04, 0xe7, 0xf7, 0xb8, 0xee, 0x01, 0xde, 0x64, 0xf2, 0x06, 0x0f, 0xe5, 0x0b, 0x12, 0xf5, 0x4e, 
  0x16, 0xf4, 0x06, 0xb5, 0xed, 0xf0, 0xfc, 0x56, 0xfa, 0x12, 0x0a, 0xf4, 0x0a, 0xf1, 0xef, 0x56, 
  0xe9, 0x1d, 0x1c, 0xcf, 0x0c, 0x18, 0x0e, 0x61, 0xfe, 0xe6, 0x05, 0xe8, 0x18, 0xf9, 0x04, 0x47, 
  0xeb, 0xf7, 0x17, 0xf6, 0xf9, 0x05, 0xec, 0x6c, 0x05, 0x1e, 0x0c, 0xe2, 0xf3, 0x07, 0xf5, 0x42, 
  0xee, 0x1d, 0xfb, 0xfd, 0xd5, 0xf4, 0x2a, 0x38, 0xb2, 0x07, 0x0d, 0x11, 0xc9, 0xee, 0x15, 0x5f, 
  0xc3, 0x16, 0x2a, 0x1b, 0xf9, 0xeb, 0x4e, 0x51, 0x14, 0x0d, 0x19, 0x02, 0x09, 0xd1, 0x00, 0x7f, 
  0xe7, 0x04, 0xf5, 0x01, 0xb4, 0xfd, 0x11, 0x34, 0xaf, 0x00, 0xe9, 0x40, 0xd9, 0x25, 0x31, 0x38, 
  0x22, 0x0f, 0x2b, 0xdf, 0xda, 0xd8, 0x10, 0x30, 0xbd, 0x1b, 0x0f, 0xf5, 0x9e, 0xee, 0xee, 0x48, 
  0xb2, 0x09, 0x0d, 0x23, 0xde, 0x00, 0x29, 0x28, 0x05, 0xf2, 0x06, 0xf7, 0x18, 0xed, 0x19, 0x7f, 
  0x07, 0xf4, 0xf3, 0xf7, 0x0e, 0xed, 0xf2, 0x70, 0x0b, 0x0a, 0x08, 0xe4, 0xfd, 0x01, 0x05, 0x72, 
  0xee, 0x12, 0x08, 0x20, 0x22, 0xee, 0x0b, 0x59, 0xdc, 0x11, 0xfe, 0xef, 0x1c, 0x02, 0xfc, 0x51, 
  0x0d, 0xf1, 0xf8, 0xf9, 0x04, 0xfa, 0xe1, 0x6e, 0xc2, 0xfd, 0x0c, 0x10, 0xdd, 0x13, 0xfa, 0x31, 
  0xc1, 0x12, 0xff, 0x09, 0xde, 0xff, 0xf0, 0x34, 0xe2, 0x00, 0xea, 0x1d, 0x02, 0xf7, 0xeb, 0x4b, 
  0xda, 0x17, 0xeb, 0xd0, 0x14, 0x26, 0xea, 0x67, 0xdc, 0x02, 0xe2, 0xdc, 0x0d, 0x05, 0x1e, 0x4c, 
  0xde, 0xd7, 0xbe, 0xe1, 0x1f, 0xf1, 0xdb, 0x6f, 0xe6, 0x23, 0xc2, 0xb1, 0xfe, 0x23, 0xe8, 0x63, 
  0xf9, 0xf3, 0xbc, 0xf9, 0xf7, 0x01, 0xf6, 0x6c, 0xf2, 0xe8, 0xb9, 0x0b, 0xf7, 0xe6, 0x19, 0x7f, 
  0xda, 0x08, 0xe4, 0x9b, 0xeb, 0x2f, 0xdf, 0x5f, 0xf8, 0xee, 0xce, 0xc5, 0xeb, 0x0e, 0x20, 0x70, 
  0x03, 0xf8, 0xe3, 0xcb, 0x2c, 0xf9, 0x09, 0x45, 0x18, 0xf4, 0x21, 0xd8, 0x02, 0x0a, 0x05, 0x63, 
  0xde, 0x12, 0x0d, 0xf2, 0xee, 0xfd, 0xda, 0x59, 0xd3, 0x13, 0xf2, 0xf8, 0xbd, 0x02, 0xe0, 0x03, 
  0x03, 0x00, 0x0b, 0xd3, 0xfa, 0x09, 0xe1, 0x62, 0xce, 0xf6, 0xf0, 0xcb, 0xff, 0x02, 0xdb, 0x5c, 
  0xba, 0x13, 0xf9, 0xd2, 0xfb, 0x19, 0xec, 0x42, 0x0c, 0xf5, 0x02, 0xcc, 0xf7, 0xeb, 0xed, 0x7c, 
  0x13, 0xfa, 0xf5, 0xa9, 0x08, 0x03, 0xe7, 0x7f, 0x03, 0xfc, 0x09, 0x9d, 0x03, 0x18, 0xcc, 0x5f, 
  0xde, 0xec, 0xff, 0xff, 0x04, 0x00, 0x00, 0x00, 0x40, 0x00, 0x00, 0x00, 0x71, 0x02, 0x00, 0x00, 
  0xcd, 0xff, 0xff, 0xff, 0xb6, 0x01, 0x00, 0x00, 0x89, 0x03, 0x00, 0x00, 0xd0, 0x06, 0x00, 0x00, 
  0x30, 0x0a, 0x00, 0x00, 0x77, 0x02, 0x00, 0x00, 0x44, 0x02, 0x00, 0x00, 0x5c, 0x03, 0x00, 0x00, 
  0x3c, 0x09, 0x00, 0x00, 0x58, 0x01, 0x00, 0x00, 0x53, 0x01, 0x00, 0x00, 0xc8, 0x04, 0x00, 0x00, 
  0xe1, 0xfe, 0xff, 0xff, 0x3a, 0x03, 0x00, 0x00, 0x68, 0xfd, 0xff, 0xff, 0x2a, 0xed, 0xff, 0xff, 
  0x04, 0x00, 0x00, 0x00, 0x00, 0x12, 0x00, 0x00, 0x23, 0xa6, 0xce, 0x10, 0x22, 0xff, 0x19, 0x59, 
  0xe7, 0x0d, 0x06, 0xea, 0xf6, 0xde, 0xbd, 0xfc, 0x22, 0xfe, 0xcc, 0x0c, 0x27, 0x0c, 0x07, 0x67, 
  0xf5, 0x00, 0x19, 0x2f, 0xfc, 0xd8, 0xb3, 0xd9, 0x1c, 0xb4, 0xc1, 0x04, 0x29, 0xe4, 0x12, 0x5c, 
  0xe5, 0xe4, 0x2d, 0xf1, 0x16, 0xe2, 0xdd, 0xf5, 0x17, 0xc2, 0xde, 0xfe, 0x24, 0xd5, 0x17, 0x68, 
  0xe8, 0x04, 0xfe, 0xad, 0xeb, 0xdf, 0xd3, 0xe8, 0x24, 0xe5, 0xe3, 0xf1, 0x06, 0xe6, 0x20, 0x5a, 
  0xf6, 0xf5, 0xf4, 0x06, 0xef, 0xd2, 0xbf, 0xf5, 0x0e, 0xc6, 0xd4, 0x03, 0x08, 0xef, 0x11, 0x73, 
  0xe8, 0xfa, 0x26, 0xca, 0x1e, 0xe0, 0xe5, 0xe5, 0x2d, 0xa9, 0xd6, 0x05, 0x2a, 0xe6, 0x09, 0x6c, 
  0xf7, 0xf6, 0x24, 0xbc, 0xfa, 0xf2, 0xbb, 0xdf, 0x1f, 0xf4, 0xc2, 0xfc, 0x21, 0xf0, 0x0c, 0x72, 
  0x1c, 0xe2, 0x2b, 0xf3, 0x13, 0xee, 0xbc, 0xec, 0x14, 0x9b, 0xc7, 0x20, 0x25, 0xf3, 0x29, 0x7f, 
  0x11, 0xe1, 0x1f, 0xab, 0x22, 0xdd, 0xe7, 0xed, 0xe5, 0xf1, 0x43, 0x16, 0x02, 0x2e, 0x04, 0xbc, 
  0x29, 0x06, 0xfa, 0x18, 0x0b, 0x4c, 0x6e, 0xf7, 0xf8, 0x0a, 0x35, 0xfa, 0xe5, 0x2e, 0xf5, 0x96, 
  0x2a, 0x2c, 0x15, 0x16, 0xef, 0xf8, 0x38, 0x21, 0xf2, 0x5e, 0x35, 0xf2, 0x05, 0x10, 0xf6, 0xb1, 
  0x0c, 0x2d, 0xf8, 0x46, 0xfd, 0x07, 0x29, 0x31, 0xfc, 0x00, 0x51, 0xfc, 0x1d, 0x23, 0x17, 0xda, 
  0x10, 0x37, 0xf7, 0xee, 0xff, 0x41, 0x7f, 0xec, 0xf0, 0x21, 0x64, 0x05, 0xfc, 0x36, 0x02, 0xc3, 
  0x31, 0x15, 0xfd, 0x27, 0xff, 0x0c, 0x4a, 0xec, 0xe3, 0x52, 0x50, 0x0e, 0xf3, 0x19, 0xdf, 0xc7, 
  0x3d, 0x1e, 0x0a, 0x3d, 0xf9, 0x3a, 0x0a, 0x0c, 0x0d, 0x35, 0x28, 0xf9, 0x0c, 0x1c, 0x16, 0xbb, 
  0x0e, 0x2b, 0x0f, 0x24, 0x02, 0x04, 0x58, 0x12, 0x0b, 0x5c, 0x54, 0xf3, 0xf1, 0x3b, 0xf8, 0xb5, 
  0x2d, 0x42, 0xe5, 0x2f, 0x00, 0x19, 0x41, 0xf8, 0xea, 0x4d, 0x44, 0x21, 0xf7, 0x35, 0x06, 0xb2, 
  0x0d, 0x20, 0xf8, 0x42, 0x0a, 0x2d, 0x4f, 0x1c, 0xe7, 0x00, 0x57, 0x18, 0x1b, 0x2f, 0x10, 0xcf, 
  0x27, 0x3d, 0xf9, 0x18, 0x1d, 0x32, 0x71, 0xe8, 0xdd, 0x40, 0x64, 0xdd, 0xf8, 0x38, 0xf7, 0x89, 
  0x30, 0x2c, 0xf8, 0x3b, 0xe2, 0x0c, 0x4c, 0x13, 0xf6, 0x5c, 0x30, 0x03, 0xe4, 0x21, 0xf1, 0xa5, 
  0x31, 0xfe, 0xfd, 0x46, 0xf1, 0x1a, 0x3b, 0x1a, 0x11, 0x18, 0x59, 0x06, 0x00, 0x0f, 0x03, 0xa6, 
  0x05, 0x3b, 0x16, 0x1e, 0xff, 0x23, 0x75, 0xe8, 0x01, 0x51, 0x6b, 0xed, 0x04, 0x2d, 0xfc, 0xbe, 
  0x37, 0x16, 0xd6, 0x20, 0xff, 0x47, 0x7c, 0x10, 0x09, 0x5b, 0x48, 0x21, 0x0a, 0x0b, 0xfa, 0xbb, 
  0x3d, 0x31, 0xf0, 0x2c, 0xf3, 0x4f, 0x5a, 0x2b, 0xf7, 0x32, 0x5c, 0x10, 0xe4, 0x26, 0xff, 0xd7, 
  0x20, 0x29, 0xe6, 0x5d, 0x15, 0x36, 0x60, 0x01, 0x03, 0x3a, 0x70, 0x1a, 0x19, 0x3f, 0xf5, 0xae, 
  0x31, 0x1e, 0x04, 0x5d, 0x07, 0x29, 0x7c, 0x0c, 0xe4, 0x43, 0x6f, 0xf6, 0x09, 0x2a, 0x19, 0xbc, 
  0x01, 0x19, 0xe8, 0x57, 0xf2, 0x42, 0x7f, 0x0c, 0x0c, 0x50, 0x56, 0x01, 0x09, 0x36, 0xf9, 0xcf, 
  0x1f, 0x21, 0xec, 0x28, 0x05, 0x42, 0x72, 0xf7, 0xff, 0x48, 0x55, 0x16, 0xec, 0x05, 0x08, 0xaa, 
  0x39, 0x02, 0xf9, 0x06, 0x17, 0x2c, 0x6b, 0x09, 0xd9, 0x30, 0x2f, 0xf4, 0x0f, 0x24, 0xe3, 0xc5, 
  0x2c, 0x1f, 0xe4, 0x04, 0x08, 0x0f, 0x44, 0x1b, 0xf4, 0x50, 0x53, 0x08, 0x04, 0x18, 0xf1, 0xb0, 
  0x1c, 0x17, 0xf9, 0x2f, 0x13, 0x2b, 0x71, 0x02, 0xf7, 0x52, 0x60, 0x06, 0xfe, 0x14, 0x0e, 0xa2, 
  0x17, 0x2a, 0x05, 0x52, 0x0c, 0x2e, 0x7f, 0x00, 0x0b, 0x6d, 0x3c, 0x08, 0xef, 0x28, 0x0d, 0xbe, 
  0x09, 0x20, 0x11, 0x2a, 0xff, 0x20, 0x59, 0x01, 0x01, 0x3e, 0x3e, 0xdf, 0xe2, 0x3d, 0x14, 0xb5, 
  0x11, 0x15, 0xf3, 0x29, 0xf0, 0x20, 0x64, 0x0d, 0xf1, 0x2d, 0x58, 0xfc, 0x0c, 0x20, 0xe6, 0xb7, 
  0x0e, 0x1d, 0xf3, 0x44, 0x03, 0x22, 0x5f, 0x1e, 0x07, 0x64, 0x5d, 0x0f, 0x12, 0x42, 0xf8, 0x99, 
  0x06, 0x1e, 0x0e, 0x75, 0x14, 0x25, 0x3f, 0x1b, 0xee, 0x0e, 0x2d, 0x21, 0xf6, 0x1c, 0xf9, 0xb1, 
  0x2b, 0x21, 0xde, 0x07, 0x1b, 0x2b, 0x75, 0xf6, 0x09, 0x2a, 0x4a, 0xfb, 0x07, 0x2a, 0xe8, 0xa9, 
  0x27, 0x17, 0x10, 0x06, 0xfb, 0x1c, 0x53, 0x22, 0xea, 0x55, 0x1f, 0xfe, 0x10, 0x43, 0xf0, 0xab, 
  0x3d, 0x31, 0xe8, 0x17, 0x0e, 0xf7, 0x48, 0x0a, 0xf5, 0x45, 0x34, 0x01, 0xfa, 0x25, 0xe8, 0xe7, 
  0x17, 0x18, 0x14, 0x24, 0xf8, 0x35, 0x5a, 0x0c, 0x0a, 0x2d, 0x3d, 0x1d, 0xf3, 0x40, 0x01, 0xaf, 
  0x1c, 0x1e, 0xf3, 0x4f, 0x0e, 0x45, 0x69, 0xf9, 0xe7, 0x7a, 0x63, 0xfc, 0x04, 0x48, 0xe7, 0xd0, 
  0x11, 0x38, 0xec, 0x51, 0xf1, 0x35, 0x4d, 0x15, 0xef, 0x40, 0x44, 0xff, 0xfc, 0x33, 0xf5, 0xda, 
  0x1a, 0x37, 0xf5, 0x2f, 0x10, 0x34, 0x7f, 0xfa, 0xe5, 0x3b, 0x2c, 0x20, 0x11, 0x41, 0xeb, 0xa5, 
  0x1e, 0x33, 0x08, 0x47, 0x04, 0x20, 0x6d, 0xef, 0x01, 0x72, 0x5b, 0x21, 0x19, 0x2f, 0xfb, 0xd1, 
  0x0a, 0x50, 0xfe, 0x52, 0xf5, 0x4c, 0x6f, 0xf6, 0x07, 0xf9, 0xe0, 0xf9, 0x18, 0xee, 0xfd, 0x5a, 
  0xf0, 0x20, 0x15, 0x13, 0x1b, 0xc3, 0xc6, 0xfe, 0x21, 0xce, 0xc6, 0x14, 0x10, 0x0a, 0x08, 0x51, 
  0x1c, 0xe6, 0x25, 0xda, 0xf6, 0xbe, 0xc6, 0xe4, 0xfd, 0xca, 0xbc, 0xfd, 0xf8, 0xea, 0xf5, 0x54, 
  0x09, 0xdc, 0x32, 0xf4, 0x09, 0xf1, 0xd3, 0x07, 0x0c, 0xea, 0xd8, 0x0d, 0x0f, 0xe0, 0x09, 0x66, 
  0xc5, 0xed, 0x25, 0x00, 0x02, 0xf3, 0xc6, 0x03, 0x34, 0xcd, 0xb5, 0x14, 0x20, 0xe9, 0x23, 0x4b, 
  0xe0, 0xcd, 0xf5, 0x0e, 0xf2, 0xd5, 0xae, 0xeb, 0x06, 0xdb, 0xc3, 0x03, 0x1e, 0xe6, 0x10, 0x6c, 
  0xe2, 0xd7, 0x30, 0x0e, 0x20, 0xde, 0xd9, 0xe1, 0x1c, 0x04, 0xba, 0x1e, 0x0f, 0xdd, 0x1d, 0x55, 
  0x1f, 0xdc, 0x07, 0xe5, 0xf1, 0xe9, 0xd8, 0xd9, 0x34, 0xb7, 0xc7, 0x1b, 0x0e, 0xce, 0x05, 0x60, 
  0x04, 0xc8, 0xfa, 0xd2, 0x09, 0xd9, 0xb6, 0xe0, 0x20, 0xb9, 0xce, 0x17, 0x06, 0xc1, 0x0c, 0x7f, 
  0x23, 0xd5, 0x14, 0xf4, 0x10, 0xe6, 0xdd, 0xe5, 0xf2, 0x29, 0x6d, 0x21, 0x02, 0x15, 0x16, 0xb3, 
  0x19, 0x1a, 0x0c, 0x0e, 0x24, 0x47, 0x71, 0x1d, 0xfb, 0xe7, 0x22, 0x13, 0xe6, 0x27, 0xfa, 0xa9, 
  0x11, 0x10, 0xf5, 0xf9, 0x01, 0x10, 0x53, 0x07, 0xe2, 0x2d, 0x0b, 0xe6, 0x0f, 0x1c, 0x10, 0xc4, 
  0x1a, 0x15, 0xf9, 0x03, 0xe5, 0xff, 0x50, 0x1b, 0x0b, 0xd2, 0x5c, 0xf0, 0x1a, 0x0f, 0x03, 0xdd, 
  0x24, 0x1c, 0xfa, 0x0d, 0x11, 0x40, 0x7f, 0xff, 0xfb, 0x30, 0x1f, 0xe2, 0x03, 0x44, 0xed, 0x9d, 
  0x1b, 0x15, 0x04, 0x50, 0xee, 0xf2, 0x5a, 0xec, 0xe5, 0x69, 0x32, 0xf6, 0x10, 0x1c, 0xf8, 0xbb, 
  0x02, 0x22, 0x08, 0x6a, 0x17, 0x17, 0x3b, 0xf5, 0x05, 0x00, 0x18, 0xec, 0x10, 0x3a, 0x12, 0xc1, 
  0x37, 0x1e, 0x0b, 0xf2, 0x02, 0x12, 0x60, 0xee, 0xf6, 0x52, 0x49, 0xe8, 0x08, 0x29, 0xe7, 0xa2, 
  0x0e, 0x1f, 0xeb, 0x75, 0xfc, 0x32, 0x4a, 0xf1, 0xea, 0x68, 0x41, 0x13, 0x13, 0x2a, 0xee, 0xa4, 
  0x28, 0x19, 0x01, 0x5e, 0x10, 0x2e, 0x21, 0x04, 0x1e, 0xaa, 0xce, 0xe5, 0x10, 0xe6, 0xec, 0x5e, 
  0x14, 0x2c, 0x11, 0xbc, 0xeb, 0xe7, 0xd6, 0xec, 0x16, 0x10, 0xce, 0x05, 0x1a, 0xfb, 0x28, 0x56, 
  0x13, 0xf1, 0x2e, 0x11, 0xff, 0xe5, 0xca, 0xee, 0x2d, 0xb1, 0xdf, 0x02, 0x14, 0xf3, 0x1c, 0x6a, 
  0x0a, 0xe7, 0x29, 0xc4, 0xf2, 0xde, 0xd8, 0xe3, 0x1d, 0xbc, 0xc8, 0x1d, 0x0e, 0xe7, 0xf8, 0x5e, 
  0xf5, 0x02, 0x28, 0xf9, 0x1e, 0xc9, 0xbb, 0xdc, 0x04, 0xf0, 0xd4, 0x09, 0x21, 0xee, 0x29, 0x4d, 
  0xf5, 0xfb, 0x1c, 0x0d, 0xf5, 0xfd, 0xd1, 0xfb, 0x25, 0xc1, 0xb4, 0x09, 0xfc, 0xeb, 0x15, 0x4e, 
  0xde, 0xd3, 0x0b, 0x10, 0x07, 0xde, 0xd2, 0xeb, 0x0d, 0x81, 0xe5, 0xf1, 0x04, 0xdd, 0x09, 0x67, 
  0xef, 0xeb, 0x11, 0x8e, 0xfe, 0xef, 0xda, 0xd6, 0x20, 0x15, 0xc1, 0xf9, 0x21, 0xd3, 0x22, 0x61, 
  0xee, 0xcf, 0x1b, 0x10, 0x10, 0xf1, 0xc8, 0x02, 0x17, 0x92, 0xe7, 0x1a, 0xfa, 0xba, 0x25, 0x68, 
  0x0b, 0xd8, 0x1f, 0xb5, 0xf6, 0xd9, 0xe3, 0x02, 0xf4, 0x20, 0x60, 0x19, 0xeb, 0x25, 0x13, 0xc0, 
  0x16, 0x17, 0x09, 0xf0, 0xfe, 0x57, 0x54, 0xe8, 0xfd, 0x09, 0x6f, 0xec, 0x04, 0x28, 0xe0, 0x81, 
  0x1a, 0x04, 0xed, 0x17, 0xf0, 0x21, 0x5e, 0x10, 0x16, 0x5d, 0x4b, 0xf3, 0xfa, 0x17, 0xfa, 0xbf, 
  0x30, 0x37, 0xf1, 0x3a, 0x0c, 0xec, 0x5a, 0x15, 0xdf, 0x05, 0x47, 0x22, 0x1b, 0xf8, 0xfe, 0xd8, 
  0x24, 0x1d, 0xef, 0xf2, 0x23, 0x55, 0x67, 0x25, 0xfb, 0x07, 0x3a, 0x09, 0xfd, 0x34, 0xe4, 0xa6, 
  0x31, 0x0c, 0xe4, 0xfc, 0x09, 0x15, 0x76, 0xd8, 0x05, 0x4f, 0x5b, 0xf8, 0x11, 0x12, 0xe2, 0xb0, 
  0x4c, 0x2a, 0xed, 0x57, 0xe2, 0x2c, 0x6f, 0x22, 0xe1, 0x0e, 0x20, 0xfc, 0x04, 0x09, 0x24, 0xab, 
  0x2b, 0x30, 0x11, 0x03, 0xfc, 0x11, 0x6b, 0x11, 0x0f, 0x7a, 0x27, 0xf6, 0x10, 0x51, 0x0a, 0xca, 
  0x0f, 0x22, 0x04, 0x60, 0x20, 0x0c, 0x63, 0x03, 0xdb, 0x52, 0x70, 0xed, 0xf0, 0x4f, 0xfb, 0xcf, 
  0x23, 0x29, 0x0e, 0x56, 0x02, 0x49, 0x73, 0xe6, 0x1b, 0x26, 0xd0, 0x16, 0x0c, 0xc8, 0x24, 0x00, 
  0xbb, 0x9f, 0x2f, 0x55, 0x29, 0xc3, 0xad, 0x12, 0x13, 0x38, 0x9b, 0x39, 0x22, 0x8f, 0x18, 0x4f, 
  0x8b, 0xbf, 0x32, 0x64, 0x18, 0x18, 0x30, 0x30, 0xba, 0x2b, 0xb9, 0xaa, 0xaa, 0xf8, 0xbe, 0xec, 
  0xc9, 0xf1, 0xa6, 0x30, 0xa4, 0xe8, 0xe5, 0xe0, 0x16, 0x07, 0xd7, 0xfd, 0x1b, 0xc7, 0xfb, 0x0c, 
  0xca, 0xa2, 0x16, 0x0e, 0x28, 0xe5, 0x8d, 0x16, 0x11, 0x53, 0xa2, 0x26, 0x1e, 0x99, 0x2d, 0x43, 
  0x81, 0x96, 0x36, 0x4c, 0x1d, 0x30, 0x2f, 0x41, 0xa8, 0x4b, 0xc1, 0xc6, 0xb5, 0xd4, 0xaa, 0x25, 
  0xca, 0xed, 0xad, 0x3f, 0xa6, 0xbc, 0xb5, 0xee, 0x16, 0x28, 0xeb, 0x1a, 0x2b, 0xd2, 0x28, 0x0f, 
  0xe6, 0x8f, 0x20, 0x2a, 0x1e, 0xd7, 0x91, 0x10, 0x18, 0x6b, 0xbf, 0x24, 0x12, 0x9d, 0x11, 0x2e, 
  0xd2, 0xb5, 0x33, 0x7c, 0x27, 0x1a, 0x10, 0x41, 0xc1, 0x2b, 0xb9, 0xcf, 0xaf, 0xe5, 0xb4, 0x23, 
  0x01, 0xfa, 0xcf, 0x20, 0xab, 0x98, 0xdd, 0xf3, 0xe3, 0x1a, 0x96, 0xb4, 0xd4, 0x9f, 0x29, 0x6a, 
  0x40, 0x9b, 0xcf, 0xd0, 0x1f, 0x32, 0xf0, 0x42, 0xc7, 0x1d, 0xdd, 0x86, 0x51, 0x8e, 0xd7, 0x35, 
  0x31, 0x43, 0x06, 0xb6, 0xe5, 0xd3, 0xc9, 0xe2, 0xdc, 0xc1, 0x8a, 0x9e, 0xe8, 0x9f, 0x96, 0xde, 
  0x25, 0xa7, 0x20, 0xc2, 0x4b, 0xc9, 0x12, 0x0f, 0x20, 0xf8, 0x0e, 0x3c, 0xef, 0xc1, 0xb4, 0x0a, 
  0x90, 0xb0, 0xfb, 0x22, 0x83, 0xf2, 0x43, 0xc3, 0x33, 0xc1, 0x8a, 0x15, 0xf5, 0x9c, 0x8e, 0x28, 
  0xf9, 0x40, 0xd1, 0x85, 0x81, 0x21, 0xf8, 0xb3, 0xf8, 0xf4, 0x2a, 0x46, 0xdc, 0x9b, 0xc9, 0xab, 
  0xaf, 0x35, 0x90, 0x2e, 0xf3, 0x25, 0x20, 0x55, 0xbf, 0x0d, 0x2a, 0xff, 0x33, 0xd0, 0x3b, 0x13, 
  0x85, 0x86, 0xe8, 0x01, 0x1e, 0x39, 0x95, 0x0e, 0x93, 0x0a, 0xd2, 0x29, 0xa6, 0xce, 0xed, 0x40, 
  0xd2, 0x1d, 0xc9, 0xf7, 0xb8, 0x3c, 0x2d, 0x29, 0xf4, 0xd4, 0xbf, 0xc0, 0xdb, 0xd9, 0xfb, 0xa2, 
  0xb9, 0xff, 0x02, 0xe6, 0x9c, 0x46, 0x01, 0xbd, 0xfa, 0x1b, 0x42, 0xee, 0xee, 0x43, 0xfa, 0xb3, 
  0x1f, 0x06, 0x00, 0x10, 0xee, 0x2f, 0x63, 0x02, 0xfe, 0x3a, 0x5b, 0x1a, 0x0e, 0x1d, 0x08, 0xae, 
  0x29, 0x11, 0xf0, 0x2c, 0x16, 0x36, 0x38, 0x0e, 0xe0, 0x4f, 0x35, 0xf9, 0x07, 0x1d, 0x0f, 0xc6, 
  0x2c, 0x25, 0x0c, 0x26, 0xec, 0x2c, 0x6a, 0x14, 0xfe, 0x36, 0x62, 0xfc, 0xfc, 0x1d, 0x0e, 0xde, 
  0x13, 0x1e, 0x0b, 0x28, 0x14, 0x4e, 0x4d, 0xf6, 0xff, 0x3a, 0x64, 0xe9, 0x01, 0x1f, 0x17, 0xb1, 
  0x17, 0x2f, 0x0f, 0x44, 0x15, 0x30, 0x67, 0x10, 0x0f, 0x43, 0x4f, 0xe6, 0xe2, 0x10, 0xe3, 0xcc, 
  0x0c, 0x2e, 0xfb, 0x33, 0x18, 0x1e, 0x6f, 0x14, 0xf4, 0x1c, 0x2b, 0x1e, 0xf7, 0x20, 0x16, 0xe5, 
  0x08, 0x20, 0xec, 0x44, 0xf6, 0x27, 0x7f, 0x1a, 0xe1, 0x1e, 0x42, 0x18, 0xe6, 0x1b, 0xfc, 0xbc, 
  0x37, 0x30, 0xfa, 0x24, 0xfd, 0x35, 0x5e, 0xed, 0xe4, 0x61, 0x33, 0xfe, 0x10, 0x25, 0xfc, 0xb2, 
  0x38, 0x16, 0x17, 0x4d, 0xe6, 0x17, 0x3b, 0x02, 0xed, 0xbc, 0xfa, 0xaf, 0xe8, 0xef, 0xc4, 0x4a, 
  0xe0, 0xff, 0xd8, 0xdc, 0xac, 0x31, 0x50, 0x9e, 0x19, 0x27, 0xe1, 0x31, 0x16, 0xcb, 0x3b, 0x56, 
  0xa7, 0xa4, 0x45, 0x24, 0x21, 0xfe, 0xf9, 0x10, 0x3c, 0xa0, 0xcc, 0x1b, 0x19, 0x9c, 0x30, 0x61, 
  0xc1, 0xdd, 0x11, 0xd9, 0x11, 0xc9, 0x25, 0xfe, 0xe7, 0xcf, 0xdf, 0xaf, 0xc6, 0xdc, 0xd3, 0x7f, 
  0xe3, 0xeb, 0xf2, 0xa9, 0xc8, 0x4d, 0x4b, 0xa5, 0x18, 0x2d, 0xbd, 0x12, 0x26, 0xc3, 0x2b, 0x4f, 
  0xbf, 0xad, 0x38, 0x33, 0x1e, 0x00, 0x14, 0x0f, 0x16, 0x8e, 0xae, 0x1f, 0x0f, 0xae, 0x15, 0x34, 
  0xd9, 0xd1, 0x13, 0x92, 0x19, 0xcf, 0x20, 0xd6, 0xd8, 0xa4, 0xf0, 0xba, 0xd0, 0xe1, 0xea, 0x6c, 
  0x11, 0x07, 0xf3, 0xae, 0xac, 0x00, 0x50, 0xac, 0x1c, 0x3e, 0x9d, 0x19, 0x3f, 0xbf, 0x22, 0x49, 
  0xca, 0xb7, 0x3c, 0x21, 0x16, 0x20, 0x20, 0x02, 0x29, 0xa1, 0xda, 0x26, 0x3a, 0xc9, 0x12, 0x59, 
  0xf1, 0xdd, 0x0b, 0xa5, 0x1e, 0xdf, 0x29, 0xea, 0x1b, 0xfe, 0xd8, 0x08, 0x23, 0x01, 0x12, 0x6c, 
  0xee, 0x0b, 0x04, 0x12, 0x1b, 0xcf, 0xc0, 0x09, 0x24, 0xa8, 0xcd, 0xef, 0xfe, 0x0c, 0x0b, 0x53, 
  0x08, 0xe3, 0x01, 0x0c, 0xf2, 0xdb, 0xc4, 0xd4, 0x0b, 0xe6, 0xc0, 0x10, 0xf6, 0xe4, 0x0c, 0x56, 
  0xf1, 0x09, 0x28, 0x16, 0x0c, 0xe6, 0xd8, 0xfe, 0x08, 0xe5, 0xd5, 0x18, 0x0e, 0xce, 0x05, 0x7f, 
  0xdc, 0xd8, 0x0c, 0xfb, 0x13, 0xe2, 0xc0, 0xf5, 0x14, 0xcf, 0xeb, 0x11, 0x1f, 0xea, 0x10, 0x67, 
  0x1c, 0xdf, 0x01, 0xb9, 0x0c, 0xcb, 0xad, 0xe3, 0x1f, 0xc4, 0xe0, 0x03, 0x03, 0xdb, 0x20, 0x5e, 
  0xfe, 0xdc, 0xfd, 0xdb, 0x19, 0xd5, 0xd7, 0x07, 0xff, 0x13, 0xc2, 0x24, 0xf8, 0xf4, 0x00, 0x5d, 
  0x0b, 0xe1, 0x03, 0xf7, 0x07, 0xe9, 0xd4, 0x04, 0x01, 0xce, 0xe0, 0xf1, 0x1a, 0xf6, 0x07, 0x68, 
  0x06, 0xe5, 0x0b, 0xeb, 0xf7, 0xc8, 0xa2, 0xf8, 0x2c, 0xdb, 0xf9, 0x03, 0x01, 0xec, 0x01, 0x7a, 
  0x17, 0xed, 0x19, 0xd0, 0x1f, 0xe2, 0xdf, 0x07, 0x0c, 0xed, 0xeb, 0xfb, 0x27, 0xef, 0xfd, 0x56, 
  0x0b, 0x0d, 0xff, 0xef, 0x15, 0xce, 0xb2, 0x06, 0x2b, 0xce, 0xeb, 0x00, 0x0f, 0x11, 0x0a, 0x48, 
  0xf1, 0x05, 0x0c, 0xe5, 0x10, 0xbf, 0xbd, 0xea, 0x15, 0xc3, 0xd5, 0x03, 0xff, 0x12, 0x1d, 0x77, 
  0x09, 0x11, 0x01, 0x11, 0x0a, 0xfd, 0xdb, 0x05, 0x04, 0x02, 0xcf, 0x06, 0x2a, 0xed, 0x27, 0x64, 
  0x0a, 0xe0, 0xf9, 0xfd, 0x05, 0xef, 0xcd, 0xdb, 0x35, 0xae, 0xbe, 0x10, 0x11, 0xc9, 0x0f, 0x56, 
  0x2a, 0xcb, 0x04, 0xc5, 0x12, 0xc2, 0xc2, 0xf6, 0x26, 0xe6, 0xda, 0x23, 0x04, 0xe8, 0x08, 0x7d, 
  0xf2, 0xf9, 0x07, 0xd9, 0x17, 0x00, 0xdd, 0x10, 0x2a, 0xee, 0xd3, 0xf5, 0xfd, 0x11, 0x23, 0x65, 
  0xd2, 0x05, 0xf9, 0x0a, 0x06, 0xd0, 0xb2, 0xf4, 0x1c, 0xb2, 0xef, 0x00, 0x17, 0x03, 0xf1, 0x7f, 
  0xdf, 0xf5, 0x05, 0xe7, 0x03, 0xe8, 0xa8, 0xee, 0xf8, 0xd0, 0xda, 0x1a, 0x11, 0xe9, 0xf7, 0x66, 
  0xd8, 0xdc, 0xff, 0xee, 0xe9, 0x01, 0xcf, 0xe0, 0xdb, 0x02, 0x34, 0xfa, 0x0d, 0x3b, 0xf2, 0xcc, 
  0x20, 0x15, 0x06, 0x18, 0x05, 0x1b, 0x7f, 0xf2, 0xe8, 0x51, 0x55, 0x18, 0xfd, 0x2c, 0x00, 0x95, 
  0x36, 0x30, 0xe7, 0x0f, 0xfc, 0x10, 0x60, 0xed, 0x08, 0x55, 0x56, 0x1b, 0xe5, 0x1e, 0xe8, 0xc1, 
  0x23, 0x14, 0xe9, 0x3e, 0x08, 0x3d, 0x3f, 0x28, 0x05, 0x38, 0x14, 0x03, 0xf2, 0x43, 0xfb, 0xc1, 
  0x2c, 0x08, 0x12, 0x4b, 0x02, 0x1e, 0x52, 0x00, 0xfe, 0x43, 0x4f, 0x09, 0x09, 0x22, 0x13, 0xd0, 
  0x06, 0x0a, 0xef, 0x19, 0x19, 0x4f, 0x56, 0xfd, 0x00, 0x40, 0x70, 0x04, 0x08, 0x31, 0x08, 0xa3, 
  0x08, 0x37, 0x08, 0x19, 0xeb, 0x3f, 0x4e, 0x16, 0x07, 0x63, 0x4b, 0xe7, 0xf7, 0x4a, 0xe3, 0xae, 
  0x28, 0x3a, 0x08, 0x45, 0x0e, 0x11, 0x40, 0x1d, 0xfb, 0x59, 0x47, 0x1a, 0x15, 0x10, 0xf7, 0x9d, 
  0x2b, 0x26, 0x00, 0x3d, 0x09, 0x35, 0x57, 0x2e, 0xe2, 0x3b, 0x42, 0xeb, 0x16, 0x31, 0xf3, 0xcd, 
  0x0b, 0x3c, 0xe7, 0x35, 0x04, 0x30, 0x66, 0xeb, 0x24, 0x9c, 0xc7, 0xf6, 0x1b, 0x94, 0xcd, 0x3d, 
  0xa9, 0xc6, 0x81, 0x51, 0x4e, 0x32, 0x4c, 0x33, 0xb1, 0x37, 0xb9, 0x69, 0xbc, 0xcb, 0xc8, 0x56, 
  0xfb, 0x9a, 0x4c, 0xb4, 0x93, 0x9b, 0x2b, 0xc1, 0xdc, 0xa4, 0x49, 0x68, 0xfa, 0xe7, 0x6e, 0xd4, 
  0x9f, 0x69, 0x2a, 0xed, 0x8d, 0xfb, 0x42, 0xda, 0x09, 0x9e, 0x17, 0x8a, 0xc6, 0x3c, 0x0c, 0x2d, 
  0x65, 0xb1, 0xd4, 0x20, 0x87, 0xc0, 0xe9, 0xf1, 0xcc, 0xbb, 0xaa, 0xaf, 0xc1, 0xdc, 0x24, 0x31, 
  0x3e, 0x39, 0x89, 0xf5, 0xaf, 0x0e, 0xc6, 0x72, 0x2d, 0x6c, 0xf6, 0xaf, 0xa0, 0x97, 0x48, 0xa3, 
  0xbc, 0x5d, 0xa2, 0x2a, 0x8b, 0xdd, 0xab, 0xf1, 0xec, 0xc2, 0xa8, 0x62, 0x05, 0x23, 0xae, 0xfe, 
  0x00, 0xd2, 0x2d, 0xef, 0xdc, 0xff, 0x90, 0xf0, 0x53, 0x1b, 0xf8, 0x13, 0xb3, 0xd5, 0xa6, 0xab, 
  0x70, 0xb1, 0x3d, 0xdf, 0xdf, 0x3a, 0x35, 0x3f, 0x88, 0x5d, 0x12, 0x18, 0xa5, 0x61, 0xda, 0x68, 
  0xdb, 0xe9, 0x4a, 0x9d, 0x99, 0xa0, 0xc6, 0xf9, 0x10, 0x95, 0xe2, 0xf6, 0x0c, 0xe5, 0x1e, 0x76, 
  0xff, 0x15, 0x14, 0xae, 0xf0, 0xc9, 0xcc, 0xe5, 0x0f, 0x0d, 0xdc, 0x06, 0x29, 0xed, 0x18, 0x4c, 
  0xfb, 0x09, 0x15, 0xf8, 0xff, 0xcf, 0xc1, 0x0a, 0x0b, 0xa1, 0xc1, 0x07, 0x03, 0xeb, 0x1a, 0x78, 
  0xf9, 0x1a, 0x10, 0xdf, 0xf0, 0xf4, 0xfe, 0x0a, 0x20, 0x9b, 0xea, 0xf0, 0x0a, 0xf8, 0x07, 0x5b, 
  0xe9, 0xef, 0x15, 0xdc, 0xf7, 0xed, 0xe5, 0xfc, 0x12, 0xfc, 0xe7, 0x1d, 0x1e, 0xdb, 0x10, 0x6d, 
  0xef, 0xf4, 0xfe, 0xf9, 0x13, 0xee, 0x9e, 0x08, 0x23, 0xc1, 0xd0, 0x0f, 0x10, 0xd4, 0xf3, 0x3f, 
  0x02, 0x04, 0x25, 0xe6, 0x1e, 0xdc, 0xe5, 0xef, 0x08, 0xa5, 0xe2, 0xfc, 0x1f, 0xd4, 0x0e, 0x7f, 
  0x16, 0xfc, 0x13, 0x9e, 0x08, 0xd9, 0xc9, 0x05, 0x10, 0x0b, 0xd6, 0xfb, 0x1f, 0xed, 0x23, 0x72, 
  0x09, 0xde, 0x28, 0xfd, 0xfe, 0xef, 0xc3, 0xf9, 0x29, 0xab, 0xd1, 0x14, 0x0d, 0xdc, 0xf8, 0x52, 
  0x1a, 0xeb, 0x0c, 0xc6, 0x13, 0xf3, 0xd4, 0xe3, 0xf1, 0x0f, 0x20, 0x03, 0xfd, 0x3a, 0xf2, 0xcc, 
  0x2e, 0x35, 0xf6, 0xf5, 0x15, 0x0d, 0x4a, 0x17, 0x07, 0x3a, 0x34, 0xf9, 0xe0, 0x3d, 0x11, 0xb0, 
  0x34, 0x02, 0x0a, 0x08, 0xf3, 0x2f, 0x58, 0xec, 0xff, 0x5b, 0x3e, 0x08, 0x0f, 0x15, 0xe6, 0xc0, 
  0x30, 0x2e, 0xea, 0x3e, 0x0a, 0x11, 0x56, 0xfc, 0x0d, 0x42, 0x44, 0xff, 0x16, 0x37, 0x03, 0xd0, 
  0x35, 0x07, 0x17, 0x26, 0x12, 0x28, 0x77, 0x08, 0xfb, 0x60, 0x3a, 0x0c, 0xeb, 0x3a, 0x01, 0x9c, 
  0x19, 0x17, 0xf5, 0x2f, 0x12, 0x36, 0x62, 0x00, 0xe2, 0x4a, 0x41, 0x05, 0x04, 0x18, 0xfe, 0xd6, 
  0x12, 0x3a, 0xec, 0x27, 0xea, 0x40, 0x4c, 0xf3, 0xfe, 0x3e, 0x60, 0xef, 0xe5, 0x10, 0x09, 0xce, 
  0x2b, 0x22, 0xfd, 0x20, 0x19, 0x36, 0x7f, 0x1c, 0xf5, 0x68, 0x5e, 0xe7, 0x17, 0x43, 0xef, 0x9b, 
  0x2b, 0x3d, 0xff, 0x58, 0x0e, 0x19, 0x4d, 0x09, 0xfc, 0x70, 0x4b, 0xf1, 0x07, 0x23, 0xe8, 0xb5, 
  0x11, 0x42, 0xfc, 0x64, 0x08, 0x4d, 0x4c, 0x05, 0xe7, 0x33, 0x5e, 0xfd, 0x05, 0x40, 0xe0, 0xa4, 
  0x1c, 0x0e, 0xe9, 0x19, 0x0f, 0x0c, 0x7f, 0xf8, 0x03, 0x2f, 0x5a, 0x1a, 0xfd, 0x22, 0x1a, 0xa5, 
  0x25, 0x2e, 0x00, 0x4d, 0xfb, 0x3f, 0x46, 0x02, 0xe3, 0x62, 0x48, 0xee, 0xe5, 0x45, 0x03, 0xb3, 
  0x27, 0x23, 0xf1, 0x38, 0x00, 0x4a, 0x68, 0x08, 0x08, 0x3c, 0x69, 0x24, 0xef, 0x27, 0x09, 0xdc, 
  0x0e, 0x30, 0x0e, 0x15, 0xe8, 0x49, 0x64, 0x28, 0x0e, 0x49, 0x45, 0x17, 0xe7, 0x47, 0xf4, 0xc5, 
  0x25, 0x36, 0xf5, 0x37, 0xfe, 0x23, 0x4e, 0x10, 0x06, 0x67, 0x38, 0xfa, 0xeb, 0x11, 0x00, 0x9a, 
  0x2e, 0x36, 0x1b, 0x32, 0x1d, 0x33, 0x43, 0x0b, 0x0d, 0x2e, 0x59, 0xf7, 0xe7, 0x2b, 0x19, 0xad, 
  0xf9, 0x38, 0x02, 0x3c, 0x20, 0x4a, 0x7a, 0x03, 0xdb, 0x24, 0x60, 0xeb, 0xfd, 0x2a, 0x08, 0xb8, 
  0x2b, 0x46, 0x10, 0x20, 0xf3, 0x45, 0x55, 0x20, 0x0d, 0x7d, 0x3f, 0xe2, 0xfa, 0x22, 0xfb, 0x9b, 
  0x35, 0x50, 0x1c, 0x71, 0xfe, 0x3a, 0x63, 0x24, 0xf9, 0x3d, 0x49, 0x1e, 0x01, 0x25, 0x14, 0xcd, 
  0x2d, 0x2c, 0x08, 0xff, 0x0c, 0x28, 0x63, 0x13, 0xeb, 0x59, 0x5f, 0x17, 0xf9, 0x1c, 0xe2, 0x93, 
  0x0d, 0x2f, 0x06, 0x1d, 0xeb, 0x1f, 0x31, 0x08, 0xe1, 0x37, 0x2b, 0x00, 0x05, 0x22, 0xe4, 0xb7, 
  0x15, 0x07, 0xe0, 0x1b, 0xf1, 0x07, 0x2f, 0x13, 0x13, 0x2b, 0x3d, 0x16, 0xf9, 0x1b, 0xec, 0xce, 
  0x21, 0x31, 0xfb, 0x1b, 0xf5, 0x3a, 0x5b, 0x05, 0xfa, 0x4f, 0x39, 0x1a, 0x0b, 0x26, 0x06, 0xcf, 
  0x31, 0x13, 0xf3, 0x20, 0x16, 0x39, 0x41, 0xf5, 0xee, 0x39, 0x61, 0x02, 0x12, 0x0d, 0xed, 0xc1, 
  0x03, 0x32, 0x00, 0x03, 0xeb, 0x1b, 0x47, 0x1c, 0x0d, 0x24, 0x47, 0xfe, 0x0b, 0x18, 0xfd, 0xbe, 
  0x00, 0x2f, 0xf9, 0x1b, 0x05, 0x33, 0x43, 0xfa, 0xfb, 0x37, 0x36, 0xf3, 0x0e, 0x32, 0xf4, 0xa1, 
  0x12, 0x2f, 0x08, 0x1d, 0x0e, 0x33, 0x68, 0x20, 0x10, 0x31, 0x46, 0x13, 0x05, 0x23, 0xf7, 0xd4, 
  0x16, 0x46, 0xef, 0x4d, 0xf3, 0x15, 0x7f, 0xfd, 0xa0, 0xc4, 0xbe, 0xbc, 0xa8, 0xee, 0x99, 0xb8, 
  0xd7, 0xf0, 0x90, 0xbe, 0xa9, 0xde, 0xe8, 0xf9, 0xac, 0xcb, 0xd2, 0x8c, 0x8d, 0xd3, 0x91, 0xb9, 
  0xce, 0xc4, 0x88, 0xb6, 0x85, 0xbb, 0xe6, 0xf0, 0xa9, 0xa0, 0xac, 0x89, 0x82, 0xd7, 0x81, 0xb1, 
  0xe9, 0xc4, 0xb0, 0xca, 0x83, 0x9d, 0xc3, 0xf0, 0x17, 0x05, 0xb1, 0x1a, 0x11, 0xcc, 0x26, 0x0f, 
  0xc9, 0x94, 0x35, 0x33, 0x09, 0x1a, 0x1f, 0x1c, 0x10, 0x1d, 0xb1, 0x2f, 0x22, 0xa6, 0x3a, 0x3b, 
  0xc1, 0x8c, 0x1d, 0x2b, 0x06, 0xf4, 0xf5, 0x14, 0x26, 0x1a, 0xae, 0x23, 0x18, 0xa2, 0x13, 0x42, 
  0xae, 0xc3, 0x24, 0x33, 0x23, 0x14, 0x44, 0x32, 0x1a, 0x00, 0xdd, 0xef, 0x26, 0x81, 0xfc, 0x36, 
  0x0c, 0xbc, 0x1f, 0xe9, 0x1c, 0xe2, 0x20, 0xfb, 0x18, 0xe7, 0xe4, 0x05, 0x20, 0x8c, 0xfc, 0x18, 
  0x2a, 0xb5, 0xff, 0xfa, 0x21, 0xee, 0x17, 0x0a, 0x1c, 0xea, 0xdb, 0xf3, 0x26, 0x89, 0x0d, 0x3d, 
  0x0a, 0xc4, 0x00, 0x14, 0x17, 0xe2, 0x0c, 0x0a, 0xf5, 0x5b, 0x56, 0x15, 0xe1, 0x30, 0x03, 0xc8, 
  0x3f, 0x29, 0x01, 0x1a, 0xf7, 0x46, 0x6f, 0xf2, 0xf6, 0x52, 0x43, 0x12, 0xec, 0x1b, 0x02, 0xb5, 
  0x17, 0x00, 0xdd, 0x57, 0xf1, 0x18, 0x7f, 0x24, 0xfa, 0x6f, 0x58, 0xf3, 0x14, 0x21, 0xe5, 0xb1, 
  0x03, 0x0f, 0xde, 0x52, 0xf6, 0x25, 0x41, 0x21, 0xe2, 0x5f, 0x5d, 0x10, 0x05, 0x43, 0xef, 0xa2, 
  0x23, 0x17, 0x06, 0x25, 0x1a, 0x3b, 0x7f, 0x22, 0xe2, 0x70, 0x6d, 0x15, 0xea, 0x19, 0x13, 0xc1, 
  0x47, 0x28, 0xd9, 0x46, 0xf7, 0x47, 0x5f, 0x1a, 0x0e, 0x66, 0x54, 0x16, 0x14, 0x1a, 0x1b, 0x9a, 
  0x1d, 0x1c, 0x16, 0x36, 0xf5, 0x21, 0x78, 0x07, 0x0d, 0x5a, 0x5a, 0xe4, 0x02, 0x2a, 0xfc, 0xc3, 
  0x1e, 0x49, 0xe4, 0x44, 0x1c, 0x63, 0x7e, 0x06, 0xfb, 0x51, 0x6a, 0xee, 0xfd, 0x38, 0x0f, 0xa2, 
  0x04, 0x32, 0x14, 0x36, 0x0b, 0x4f, 0x79, 0x04, 0x0a, 0x41, 0x60, 0xe1, 0xea, 0x2f, 0x19, 0x98, 
  0x21, 0x35, 0x11, 0x67, 0xf8, 0x27, 0x77, 0x22, 0xfb, 0xf3, 0xe0, 0x12, 0x18, 0x08, 0x20, 0x5c, 
  0xff, 0xf3, 0x20, 0xf3, 0xed, 0xc7, 0x9f, 0x06, 0x1e, 0xb0, 0xd6, 0xf8, 0x25, 0x02, 0xfa, 0x4e, 
  0x05, 0x19, 0x2b, 0xef, 0xf6, 0xe0, 0x01, 0xfa, 0x2b, 0xbd, 0xdc, 0x17, 0x1b, 0xe8, 0xf8, 0x5d, 
  0x0a, 0x05, 0xff, 0xce, 0xed, 0xd2, 0xaa, 0x06, 0x12, 0xf0, 0xd3, 0x17, 0x05, 0x0e, 0x15, 0x56, 
  0xed, 0xf7, 0x09, 0x04, 0x13, 0xe5, 0xb6, 0xe6, 0x2c, 0xe3, 0xb6, 0xf3, 0x1c, 0xf3, 0x00, 0x70, 
  0xe6, 0xde, 0x11, 0xe9, 0x17, 0xe0, 0xd2, 0xfc, 0x03, 0xda, 0xbe, 0x0c, 0x24, 0xf0, 0xf7, 0x63, 
  0xec, 0xc9, 0x1a, 0x1e, 0x0c, 0xd5, 0xa7, 0x03, 0x10, 0xed, 0xc0, 0xfc, 0x14, 0xd2, 0x26, 0x7f, 
  0xfe, 0xf4, 0xfa, 0xea, 0x1c, 0xe7, 0xa6, 0x00, 0x1a, 0xcd, 0xd8, 0x0b, 0x23, 0xe9, 0x00, 0x6e, 
  0x29, 0xe2, 0x16, 0xbf, 0x10, 0xd6, 0xcb, 0xf8, 0x1f, 0xdd, 0xce, 0x01, 0x1e, 0xc8, 0x11, 0x56, 
  0x13, 0xe5, 0x1d, 0xc6, 0xfe, 0xdc, 0x8b, 0xdf, 0xf7, 0xfb, 0x3b, 0xe9, 0xf3, 0x1c, 0xfb, 0xa8, 
  0x1e, 0x0d, 0xe6, 0x14, 0xef, 0x10, 0x65, 0x03, 0x0e, 0x51, 0x40, 0xfb, 0x13, 0x33, 0x0e, 0xb9, 
  0x29, 0xfe, 0x06, 0x4f, 0xf7, 0xfb, 0x44, 0x0b, 0xf6, 0x71, 0x2a, 0xfc, 0xf7, 0xf8, 0xf3, 0xab, 
  0x04, 0xfc, 0x1d, 0x55, 0x00, 0x3e, 0x4d, 0x41, 0xf8, 0x46, 0x58, 0x23, 0x0b, 0x22, 0x0b, 0xc7, 
  0x14, 0x2e, 0xef, 0x08, 0x05, 0x21, 0x7a, 0xe2, 0xe7, 0x42, 0x72, 0xe8, 0xeb, 0x3f, 0xf1, 0xcb, 
  0x19, 0x04, 0xe2, 0x2b, 0x0f, 0x39, 0x49, 0x17, 0x18, 0x4f, 0x59, 0x16, 0xec, 0x0f, 0x07, 0xb0, 
  0x2d, 0x2a, 0x09, 0x26, 0x02, 0x34, 0x26, 0x16, 0x09, 0x65, 0x50, 0x1e, 0x21, 0x2e, 0xef, 0xbc, 
  0xfa, 0x31, 0x04, 0x5f, 0x06, 0x4a, 0x7f, 0x1d, 0xe8, 0x23, 0x53, 0x08, 0x02, 0x20, 0xf3, 0xad, 
  0x1a, 0x38, 0x04, 0x3b, 0xee, 0x27, 0x75, 0xf1, 0x03, 0x3c, 0x5d, 0x08, 0xff, 0x38, 0xe6, 0xb8, 
  0x2f, 0x19, 0xf0, 0x22, 0xf1, 0x18, 0x61, 0x18, 0x12, 0x22, 0x4a, 0x0b, 0x12, 0x1e, 0xf8, 0xc5, 
  0x27, 0x1d, 0xf5, 0x15, 0xf8, 0x45, 0x5f, 0x15, 0xee, 0x43, 0x46, 0xeb, 0xf8, 0x10, 0x09, 0xaa, 
  0x1a, 0x0b, 0xe9, 0x1d, 0x0b, 0x21, 0x57, 0x1c, 0xdf, 0x40, 0x27, 0xf1, 0x0f, 0x3c, 0xed, 0xc7, 
  0x05, 0x36, 0xee, 0x3f, 0xf8, 0xfb, 0x37, 0xff, 0xf1, 0x0f, 0x55, 0x1e, 0xe7, 0x2b, 0x19, 0xdf, 
  0x31, 0x24, 0xfc, 0x06, 0x15, 0x2d, 0x76, 0x1c, 0xea, 0x3d, 0x42, 0x06, 0xe5, 0x39, 0x14, 0xb4, 
  0x19, 0x1f, 0xec, 0x34, 0xf9, 0x32, 0x6c, 0x05, 0xf1, 0x62, 0x49, 0xf3, 0x09, 0x0a, 0xf7, 0xcd, 
  0x15, 0x1a, 0xf4, 0x39, 0x12, 0x41, 0x51, 0x1b, 0x07, 0x30, 0x47, 0x0a, 0xf3, 0x33, 0xf2, 0xbb, 
  0x18, 0x36, 0x0c, 0x44, 0x03, 0x30, 0x7f, 0x12, 0xf8, 0x5e, 0x56, 0x0a, 0x06, 0x28, 0x04, 0xc1, 
  0xfc, 0x3f, 0x06, 0x32, 0xe8, 0x24, 0x5a, 0xff, 0x05, 0x44, 0x66, 0xfe, 0x19, 0x3c, 0xf9, 0xb1, 
  0x03, 0x1c, 0xfa, 0x37, 0x16, 0x25, 0x51, 0xf6, 0xf4, 0x4c, 0x25, 0xfc, 0xf9, 0x13, 0x0d, 0xbd, 
  0x26, 0x0d, 0x09, 0x25, 0xee, 0x2e, 0x6a, 0x18, 0xf7, 0x5d, 0x59, 0xf4, 0x01, 0x30, 0xff, 0xb5, 
  0x16, 0x2b, 0xe3, 0x2f, 0x0b, 0x3b, 0x59, 0x25, 0x08, 0x39, 0x59, 0xfe, 0x14, 0x15, 0x13, 0xad, 
  0x13, 0x1d, 0xee, 0x12, 0xfb, 0x21, 0x4c, 0x19, 0x11, 0x4c, 0x5d, 0x10, 0x02, 0x2d, 0xe4, 0xc6, 
  0x0b, 0x1f, 0x0e, 0x47, 0x06, 0x21, 0x42, 0x2a, 0xfd, 0x4e, 0x37, 0x10, 0x05, 0x14, 0x02, 0xab, 
  0x1d, 0x08, 0x04, 0x50, 0x07, 0x45, 0x6b, 0x23, 0xf1, 0x2d, 0x34, 0xf0, 0xec, 0x2e, 0xff, 0xb0, 
  0x27, 0x36, 0x14, 0x18, 0x07, 0x26, 0x58, 0xfd, 0xf4, 0x15, 0x61, 0xfa, 0x0f, 0x13, 0x06, 0xd7, 
  0x08, 0x1e, 0xf2, 0x1b, 0xee, 0x53, 0x7f, 0x10, 0xec, 0x2d, 0x5f, 0xee, 0x11, 0x16, 0xf7, 0xa8, 
  0x2e, 0x1d, 0x04, 0x36, 0xe6, 0x32, 0x77, 0x0e, 0xfb, 0x4b, 0x1e, 0x12, 0x08, 0x35, 0x00, 0xca, 
  0x19, 0x1a, 0xee, 0x5b, 0xf0, 0x00, 0x5b, 0x1d, 0x0f, 0x1c, 0xc1, 0xf2, 0x21, 0xd4, 0x0a, 0x24, 
  0xf8, 0xb5, 0x26, 0x36, 0x14, 0xea, 0xac, 0x06, 0x15, 0x0d, 0xa3, 0x10, 0x26, 0x9a, 0x10, 0x6f, 
  0xb9, 0xd0, 0x2b, 0x38, 0xfe, 0x20, 0x24, 0x14, 0xc6, 0x6c, 0xd7, 0xd5, 0xe9, 0x26, 0xcd, 0x3b, 
  0x31, 0xe8, 0xe6, 0x39, 0xdb, 0xf9, 0xc2, 0xf8, 0x30, 0xfc, 0xe4, 0x0a, 0x13, 0xd6, 0x24, 0x2d, 
  0xd6, 0xbb, 0x1d, 0x0d, 0xeb, 0xc8, 0x98, 0x04, 0x05, 0x2c, 0xa0, 0x0a, 0x1d, 0xaf, 0x2a, 0x52, 
  0xa0, 0xce, 0x24, 0x38, 0x22, 0x21, 0x0a, 0x21, 0xf6, 0x60, 0xed, 0xc1, 0xbf, 0xec, 0xc9, 0x77, 
  0x29, 0xdb, 0xd4, 0x4e, 0xb8, 0xf4, 0xb5, 0xff, 0x2e, 0x12, 0xf6, 0x08, 0x2b, 0xd4, 0x0c, 0x4b, 
  0xf4, 0x9f, 0x25, 0x12, 0xfc, 0xd6, 0x81, 0xf9, 0x1f, 0x2e, 0xbf, 0x01, 0x22, 0xb0, 0x14, 0x74, 
  0xf0, 0xdd, 0x2b, 0x43, 0x24, 0x29, 0x17, 0x00, 0xd2, 0x57, 0xd3, 0xbd, 0xef, 0xef, 0xda, 0x65, 
  0x2a, 0xdd, 0xe3, 0x48, 0xcb, 0xf2, 0x9f, 0x01, 0x32, 0xc8, 0xb8, 0x25, 0xf6, 0xc5, 0xfc, 0x38, 
  0x0c, 0xca, 0x28, 0xce, 0xf9, 0x43, 0xd2, 0xfb, 0xf3, 0xd2, 0x87, 0xb4, 0x17, 0xf2, 0xe3, 0x19, 
  0xe9, 0xf7, 0x4e, 0xd9, 0xf7, 0xd4, 0x14, 0xae, 0xfb, 0x59, 0xd8, 0xc9, 0x3f, 0x07, 0x37, 0xc8, 
  0xa5, 0x15, 0xd8, 0xf9, 0xf4, 0x2c, 0x14, 0xf4, 0xfe, 0x52, 0x2a, 0xf8, 0x22, 0xb4, 0x3a, 0xba, 
  0xc6, 0x1b, 0xe5, 0x39, 0xe0, 0x08, 0xcc, 0x4d, 0xb1, 0x5b, 0x81, 0x9d, 0x8b, 0x40, 0x0d, 0x17, 
  0xce, 0x9a, 0xde, 0x11, 0x99, 0xd4, 0x03, 0xf6, 0x2f, 0xfe, 0xfe, 0xc1, 0x9e, 0x0b, 0x42, 0xec, 
  0x01, 0x86, 0x0c, 0xd1, 0x97, 0xc4, 0xca, 0xcd, 0x04, 0x3b, 0x9e, 0xf6, 0xef, 0xd1, 0xa6, 0xd8, 
  0x28, 0xc3, 0x1f, 0xd0, 0xbd, 0xfb, 0x35, 0x12, 0x1a, 0x05, 0x86, 0x0e, 0x34, 0xf4, 0x45, 0xe7, 
  0x1d, 0xc0, 0xad, 0xb2, 0xe5, 0x04, 0xb2, 0xa6, 0x1b, 0xb3, 0xa8, 0xf4, 0x25, 0xda, 0x0e, 0x35, 
  0x9c, 0x3b, 0x38, 0xcd, 0xf0, 0x47, 0x11, 0xe1, 0x9d, 0x9c, 0x3d, 0x01, 0x12, 0xd6, 0xca, 0xb3, 
  0xd6, 0x29, 0x8a, 0xaa, 0xc1, 0xf5, 0xad, 0xae, 0x16, 0x4e, 0xea, 0xb2, 0x21, 0x97, 0x63, 0xdc, 
  0x05, 0x4c, 0x13, 0x24, 0xec, 0x99, 0x4a, 0xbe, 0xaf, 0x8f, 0xad, 0xf3, 0x9d, 0xf0, 0x99, 0xa4, 
  0x16, 0xb0, 0x92, 0x8d, 0x49, 0xf7, 0xba, 0x62, 0x30, 0xd8, 0xf0, 0x2c, 0xa9, 0x3a, 0xc9, 0xd8, 
  0xe3, 0x0b, 0xf4, 0x2e, 0x30, 0xda, 0x8d, 0x3c, 0x27, 0x47, 0xe9, 0x0e, 0x1b, 0x4b, 0x26, 0xaa, 
  0x20, 0xbb, 0x03, 0x9a, 0x31, 0xb1, 0xa3, 0xa9, 0xd6, 0xa2, 0xdc, 0x4b, 0xe0, 0x99, 0x93, 0x4d, 
  0xb4, 0x82, 0x1f, 0x18, 0xb8, 0xca, 0x2f, 0xbc, 0x07, 0xcb, 0x35, 0x4e, 0xa6, 0xb0, 0xb1, 0xcc, 
  0xe5, 0xd9, 0xd5, 0x98, 0x0b, 0x1d, 0x2e, 0x47, 0x94, 0xde, 0xd5, 0x8d, 0xd7, 0xe1, 0x92, 0x05, 
  0x5a, 0xc7, 0x95, 0x2c, 0x5f, 0x0c, 0xc1, 0x67, 0xad, 0x4a, 0x02, 0xf4, 0x81, 0x44, 0x5a, 0x2e, 
  0xe8, 0xf8, 0xb9, 0x21, 0xc3, 0x4a, 0xd2, 0xf1, 0x2d, 0xe5, 0xda, 0x06, 0x22, 0xeb, 0x1c, 0x68, 
  0x2c, 0x08, 0x05, 0xf4, 0xf3, 0xc0, 0xc2, 0xf9, 0x0d, 0xaa, 0xc3, 0xf7, 0x05, 0xe9, 0x15, 0x56, 
  0x34, 0xfb, 0xf9, 0xca, 0xf0, 0xca, 0x97, 0xf0, 0x2c, 0xc2, 0xdd, 0x0b, 0x2f, 0xed, 0x27, 0x67, 
  0x18, 0xed, 0x25, 0xe9, 0xea, 0xf7, 0xee, 0xe8, 0x0b, 0xf6, 0xdf, 0xe8, 0x27, 0xe5, 0x26, 0x4b, 
  0xd4, 0xec, 0x18, 0x2d, 0x22, 0xcb, 0xa4, 0xd4, 0x2b, 0xb7, 0xe2, 0x0d, 0x21, 0xf8, 0x27, 0x59, 
  0x00, 0xef, 0x2b, 0x00, 0x18, 0xea, 0x9f, 0xe1, 0x14, 0xec, 0xda, 0xf9, 0x2f, 0xf5, 0x25, 0x75, 
  0xd3, 0xdd, 0xfc, 0xf9, 0x0d, 0xcc, 0xe8, 0xeb, 0x10, 0xdf, 0xb6, 0x00, 0x2d, 0xe3, 0x1b, 0x62, 
  0x26, 0xfe, 0x09, 0xe6, 0x10, 0xbe, 0xca, 0xdf, 0x3b, 0x9e, 0xd6, 0x22, 0x15, 0xbf, 0x00, 0x69, 
  0x29, 0xc4, 0x13, 0xae, 0x17, 0xd7, 0x81, 0xe6, 0x1c, 0xc7, 0xe0, 0x0b, 0x28, 0xb8, 0x00, 0x64, 
  0x0f, 0xc2, 0x17, 0xe2, 0x02, 0xf2, 0xb4, 0xf3, 0x0d, 0xe2, 0xbc, 0xfa, 0x12, 0xe4, 0xef, 0x68, 
  0xfe, 0xf2, 0xfe, 0x0b, 0x1c, 0xdb, 0xb2, 0xef, 0x15, 0xa6, 0xd2, 0xf9, 0x07, 0x08, 0x10, 0x62, 
  0x0a, 0x16, 0x13, 0xcf, 0xf9, 0xbb, 0xcd, 0x08, 0x14, 0xdd, 0xc1, 0xf9, 0x0f, 0xd4, 0x05, 0x7f, 
  0x10, 0xdf, 0x12, 0xdc, 0xfe, 0xec, 0xdf, 0x02, 0x2a, 0x0d, 0xb1, 0x16, 0x00, 0xec, 0x28, 0x58, 
  0xd9, 0xb1, 0x27, 0x2a, 0x13, 0xc3, 0xa5, 0x05, 0x2e, 0xb2, 0xda, 0x03, 0x0c, 0xed, 0xf7, 0x58, 
  0xd4, 0xbe, 0x2c, 0x0f, 0xf3, 0xdb, 0xc0, 0xea, 0x0d, 0xf0, 0xb2, 0x20, 0xf9, 0xc8, 0x28, 0x69, 
  0xcd, 0xbe, 0x02, 0x12, 0x13, 0xf9, 0xbd, 0xff, 0x21, 0xe9, 0xb0, 0x19, 0x06, 0xd6, 0x12, 0x75, 
  0xfa, 0xd1, 0x16, 0xff, 0x21, 0xcd, 0xbd, 0xdc, 0x0e, 0xae, 0xe1, 0xf3, 0xfb, 0xb5, 0xfb, 0x5d, 
  0xfc, 0xeb, 0xfe, 0xb8, 0x10, 0xf3, 0xbf, 0xf5, 0x25, 0xe3, 0xba, 0xfb, 0x15, 0xac, 0x23, 0x73, 
  0x09, 0xbd, 0x2b, 0xe9, 0xf2, 0x0f, 0xce, 0xdb, 0x36, 0xff, 0xff, 0xff, 0x04, 0x00, 0x00, 0x00, 
  0x80, 0x00, 0x00, 0x00, 0x99, 0x05, 0x00, 0x00, 0x73, 0x04, 0x00, 0x00, 0xe4, 0xfd, 0xff, 0xff, 
  0x50, 0xfd, 0xff, 0xff, 0x5a, 0xff, 0xff, 0xff, 0x67, 0x05, 0x00, 0x00, 0x37, 0x01, 0x00, 0x00, 
  0x97, 0x07, 0x00, 0x00, 0xd1, 0x00, 0x00, 0x00, 0xb0, 0x06, 0x00, 0x00, 0x0e, 0xf9, 0xff, 0xff, 
  0x9e, 0xfd, 0xff, 0xff, 0xea, 0x06, 0x00, 0x00, 0x4d, 0x05, 0x00, 0x00, 0xb5, 0x05, 0x00, 0x00, 
  0x36, 0xfd, 0xff, 0xff, 0x40, 0xfb, 0xff, 0xff, 0xe6, 0x04, 0x00, 0x00, 0x7e, 0xfe, 0xff, 0xff, 
  0x86, 0xfe, 0xff, 0xff, 0xbd, 0xfd, 0xff, 0xff, 0x13, 0x09, 0x00, 0x00, 0x42, 0xfc, 0xff, 0xff, 
  0xeb, 0x05, 0x00, 0x00, 0x0b, 0x02, 0x00, 0x00, 0x06, 0xfe, 0xff, 0xff, 0xb1, 0xfd, 0xff, 0xff, 
  0x07, 0x03, 0x00, 0x00, 0xdd, 0xfa, 0xff, 0xff, 0x4b, 0xfb, 0xff, 0xff, 0xd9, 0x06, 0x00, 0x00, 
  0x1e, 0x07, 0x00, 0x00, 0xc2, 0xff, 0xff, 0xff, 0x04, 0x00, 0x00, 0x00, 0x20, 0x00, 0x00, 0x00, 
  0x3d, 0xb9, 0x92, 0xc5, 0xa3, 0x61, 0x82, 0x34, 0xb3, 0x48, 0x3e, 0xa4, 0x4c, 0x2c, 0x38, 0x91, 
  0x22, 0x32, 0xa7, 0x81, 0x9e, 0x5e, 0xbd, 0x26, 0xbd, 0xc2, 0xc2, 0x6b, 0x25, 0x0b, 0x63, 0x24, 
  0xee, 0xff, 0xff, 0xff, 0x04, 0x00, 0x00, 0x00, 0x04, 0x00, 0x00, 0x00, 0xdc, 0x01, 0x00, 0x00, 
  0x00, 0x00, 0x06, 0x00, 0x08, 0x00, 0x04, 0x00, 0x06, 0x00, 0x00, 0x00, 0x04, 0x00, 0x00, 0x00, 
  0x08, 0x00, 0x00, 0x00, 0x01, 0x00, 0x00, 0x00, 0x02, 0x00, 0x00, 0x00, 0x34, 0xee, 0xff, 0xff, 
  0x38, 0xee, 0xff, 0xff, 0x0f, 0x00, 0x00, 0x00, 0x4d, 0x4c, 0x49, 0x52, 0x20, 0x43, 0x6f, 0x6e, 
  0x76, 0x65, 0x72, 0x74, 0x65, 0x64, 0x2e, 0x00, 0x01, 0x00, 0x00, 0x00, 0x14, 0x00, 0x00, 0x00, 
  0x00, 0x00, 0x0e, 0x00, 0x18, 0x00, 0x14, 0x00, 0x10, 0x00, 0x0c, 0x00, 0x08, 0x00, 0x04, 0x00, 
  0x0e, 0x00, 0x00, 0x00, 0x14, 0x00, 0x00, 0x00, 0x1c, 0x00, 0x00, 0x00, 0x80, 0x02, 0x00, 0x00, 
  0x84, 0x02, 0x00, 0x00, 0x88, 0x02, 0x00, 0x00, 0x04, 0x00, 0x00, 0x00, 0x6d, 0x61, 0x69, 0x6e, 
  0x00, 0x00, 0x00, 0x00, 0x09, 0x00, 0x00, 0x00, 0x1c, 0x02, 0x00, 0x00, 0xb8, 0x01, 0x00, 0x00, 
  0x68, 0x01, 0x00, 0x00, 0x24, 0x01, 0x00, 0x00, 0xe4, 0x00, 0x00, 0x00, 0xa0, 0x00, 0x00, 0x00, 
  0x6c, 0x00, 0x00, 0x00, 0x34, 0x00, 0x00, 0x00, 0x10, 0x00, 0x00, 0x00, 0x00, 0x00, 0x0a, 0x00, 
  0x10, 0x00, 0x0c, 0x00, 0x08, 0x00, 0x04, 0x00, 0x0a, 0x00, 0x00, 0x00, 0x0c, 0x00, 0x00, 0x00, 
  0x10, 0x00, 0x00, 0x00, 0x04, 0x00, 0x00, 0x00, 0x01, 0x00, 0x00, 0x00, 0x12, 0x00, 0x00, 0x00, 
  0x01, 0x00, 0x00, 0x00, 0x11, 0x00, 0x00, 0x00, 0xa2, 0xfe, 0xff, 0xff, 0x14, 0x00, 0x00, 0x00, 
  0x00, 0x00, 0x00, 0x08, 0x10, 0x00, 0x00, 0x00, 0x14, 0x00, 0x00, 0x00, 0x03, 0x00, 0x00, 0x00, 
  0xf8, 0xee, 0xff, 0xff, 0x01, 0x00, 0x00, 0x00, 0x11, 0x00, 0x00, 0x00, 0x03, 0x00, 0x00, 0x00, 
  0x10, 0x00, 0x00, 0x00, 0x03, 0x00, 0x00, 0x00, 0x02, 0x00, 0x00, 0x00, 0xd6, 0xfe, 0xff, 0xff, 
  0x14, 0x00, 0x00, 0x00, 0x00, 0x00, 0x00, 0x1b, 0x10, 0x00, 0x00, 0x00, 0x14, 0x00, 0x00, 0x00, 
  0x02, 0x00, 0x00, 0x00, 0x2c, 0xef, 0xff, 0xff, 0x01, 0x00, 0x00, 0x00, 0x10, 0x00, 0x00, 0x00, 
  0x02, 0x00, 0x00, 0x00, 0x0f, 0x00, 0x00, 0x00, 0x01, 0x00, 0x00, 0x00, 0x06, 0xff, 0xff, 0xff, 
  0x14, 0x00, 0x00, 0x00, 0x00, 0x00, 0x00, 0x05, 0x24, 0x00, 0x00, 0x00, 0x28, 0x00, 0x00, 0x00, 
  0x01, 0x00, 0x00, 0x00, 0xf6, 0xfe, 0xff, 0xff, 0x02, 0x00, 0x00, 0x00, 0x02, 0x00, 0x00, 0x00, 
  0x02, 0x00, 0x00, 0x00, 0x02, 0x00, 0x00, 0x00, 0x00, 0x00, 0x00, 0x01, 0x01, 0x00, 0x00, 0x00, 
  0x0f, 0x00, 0x00, 0x00, 0x01, 0x00, 0x00, 0x00, 0x0e, 0x00, 0x00, 0x00, 0xe6, 0xfe, 0xff, 0xff, 
  0x10, 0x00, 0x00, 0x00, 0x00, 0x00, 0x00, 0x01, 0x18, 0x00, 0x00, 0x00, 0x1c, 0x00, 0x00, 0x00, 
  0xd8, 0xfe, 0xff, 0xff, 0x00, 0x00, 0x00, 0x01, 0x01, 0x00, 0x00, 0x00, 0x01, 0x00, 0x00, 0x00, 
  0x01, 0x00, 0x00, 0x00, 0x0e, 0x00, 0x00, 0x00, 0x03, 0x00, 0x00, 0x00, 0x0d, 0x00, 0x00, 0x00, 
  0x05, 0x00, 0x00, 0x00, 0x04, 0x00, 0x00, 0x00, 0x82, 0xff, 0xff, 0xff, 0x14, 0x00, 0x00, 0x00, 
  0x00, 0x00, 0x00, 0x05, 0x24, 0x00, 0x00, 0x00, 0x28, 0x00, 0x00, 0x00, 0x01, 0x00, 0x00, 0x00, 
  0x72, 0xff, 0xff, 0xff, 0x02, 0x00, 0x00, 0x00, 0x02, 0x00, 0x00, 0x00, 0x02, 0x00, 0x00, 0x00, 
  0x02, 0x00, 0x00, 0x00, 0x00, 0x00, 0x00, 0x01, 0x01, 0x00, 0x00, 0x00, 0x0d, 0x00, 0x00, 0x00, 
  0x01, 0x00, 0x00, 0x00, 0x0c, 0x00, 0x00, 0x00, 0x62, 0xff, 0xff, 0xff, 0x10, 0x00, 0x00, 0x00, 
  0x00, 0x00, 0x00, 0x01, 0x18, 0x00, 0x00, 0x00, 0x1c, 0x00, 0x00, 0x00, 0x54, 0xff, 0xff, 0xff, 
  0x00, 0x00, 0x00, 0x01, 0x01, 0x00, 0x00, 0x00, 0x01, 0x00, 0x00, 0x00, 0x01, 0x00, 0x00, 0x00, 
  0x0c, 0x00, 0x00, 0x00, 0x03, 0x00, 0x00, 0x00, 0x0b, 0x00, 0x00, 0x00, 0x07, 0x00, 0x00, 0x00, 
  0x06, 0x00, 0x00, 0x00, 0x00, 0x00, 0x0e, 0x00, 0x1a, 0x00, 0x14, 0x00, 0x10, 0x00, 0x0c, 0x00, 
  0x0b, 0x00, 0x04, 0x00, 0x0e, 0x00, 0x00, 0x00, 0x24, 0x00, 0x00, 0x00, 0x00, 0x00, 0x00, 0x05, 
  0x34, 0x00, 0x00, 0x00, 0x38, 0x00, 0x00, 0x00, 0x01, 0x00, 0x00, 0x00, 0x00, 0x00, 0x0e, 0x00, 
  0x18, 0x00, 0x17, 0x00, 0x10, 0x00, 0x0c, 0x00, 0x08, 0x00, 0x04, 0x00, 0x0e, 0x00, 0x00, 0x00, 
  0x02, 0x00, 0x00, 0x00, 0x02, 0x00, 0x00, 0x00, 0x02, 0x00, 0x00, 0x00, 0x02, 0x00, 0x00, 0x00, 
  0x00, 0x00, 0x00, 0x01, 0x01, 0x00, 0x00, 0x00, 0x0b, 0x00, 0x00, 0x00, 0x01, 0x00, 0x00, 0x00, 
  0x0a, 0x00, 0x00, 0x00, 0x00, 0x00, 0x0e, 0x00, 0x14, 0x00, 0x00, 0x00, 0x10, 0x00, 0x0c, 0x00, 
  0x0b, 0x00, 0x04, 0x00, 0x0e, 0x00, 0x00, 0x00, 0x1c, 0x00, 0x00, 0x00, 0x00, 0x00, 0x00, 0x01, 
  0x24, 0x00, 0x00, 0x00, 0x28, 0x00, 0x00, 0x00, 0x0c, 0x00, 0x10, 0x00, 0x00, 0x00, 0x0c, 0x00, 
  0x08, 0x00, 0x07, 0x00, 0x0c, 0x00, 0x00, 0x00, 0x00, 0x00, 0x00, 0x01, 0x01, 0x00, 0x00, 0x00, 
  0x01, 0x00, 0x00, 0x00, 0x01, 0x00, 0x00, 0x00, 0x0a, 0x00, 0x00, 0x00, 0x03, 0x00, 0x00, 0x00, 
  0x00, 0x00, 0x00, 0x00, 0x09, 0x00, 0x00, 0x00, 0x08, 0x00, 0x00, 0x00, 0x01, 0x00, 0x00, 0x00, 
  0x12, 0x00, 0x00, 0x00, 0x01, 0x00, 0x00, 0x00, 0x00, 0x00, 0x00, 0x00, 0x13, 0x00, 0x00, 0x00, 
  0x60, 0x0f, 0x00, 0x00, 0xd8, 0x0e, 0x00, 0x00, 0x4c, 0x0e, 0x00, 0x00, 0xe0, 0x0d, 0x00, 0x00, 
  0xf4, 0x0b, 0x00, 0x00, 0x08, 0x0a, 0x00, 0x00, 0xdc, 0x08, 0x00, 0x00, 0xb0, 0x07, 0x00, 0x00, 
  0xe4, 0x06, 0x00, 0x00, 0x18, 0x06, 0x00, 0x00, 0x34, 0x05, 0x00, 0x00, 0xa0, 0x04, 0x00, 0x00, 
  0xb4, 0x03, 0x00, 0x00, 0x20, 0x03, 0x00, 0x00, 0x34, 0x02, 0x00, 0x00, 0xa0, 0x01, 0x00, 0x00, 
  0x14, 0x01, 0x00, 0x00, 0x80, 0x00, 0x00, 0x00, 0x04, 0x00, 0x00, 0x00, 0x02, 0xf1, 0xff, 0xff, 
  0x00, 0x00, 0x00, 0x01, 0x18, 0x00, 0x00, 0x00, 0x20, 0x00, 0x00, 0x00, 0x3c, 0x00, 0x00, 0x00, 
  0x13, 0x00, 0x00, 0x00, 0x00, 0x00, 0x00, 0x09, 0x50, 0x00, 0x00, 0x00, 0x02, 0x00, 0x00, 0x00, 
  0xff, 0xff, 0xff, 0xff, 0x01, 0x00, 0x00, 0x00, 0xe4, 0xf0, 0xff, 0xff, 0x08, 0x00, 0x00, 0x00, 
  0x10, 0x00, 0x00, 0x00, 0x01, 0x00, 0x00, 0x00, 0x80, 0xff, 0xff, 0xff, 0xff, 0xff, 0xff, 0xff, 
  0x01, 0x00, 0x00, 0x00, 0x00, 0x00, 0x80, 0x3b, 0x19, 0x00, 0x00, 0x00, 0x53, 0x74, 0x61, 0x74, 
  0x65, 0x66, 0x75, 0x6c, 0x50, 0x61, 0x72, 0x74, 0x69, 0x74, 0x69, 0x6f, 0x6e, 0x65, 0x64, 0x43, 
  0x61, 0x6c, 0x6c, 0x3a, 0x30, 0x00, 0x00, 0x00, 0x02, 0x00, 0x00, 0x00, 0x01, 0x00, 0x00, 0x00, 
  0x01, 0x00, 0x00, 0x00, 0x7a, 0xf1, 0xff, 0xff, 0x00, 0x00, 0x00, 0x01, 0x18, 0x00, 0x00, 0x00, 
  0x20, 0x00, 0x00, 0x00, 0x3c, 0x00, 0x00, 0x00, 0x12, 0x00, 0x00, 0x00, 0x00, 0x00, 0x00, 0x09, 
  0x68, 0x00, 0x00, 0x00, 0x02, 0x00, 0x00, 0x00, 0xff, 0xff, 0xff, 0xff, 0x01, 0x00, 0x00, 0x00, 
  0x5c, 0xf1, 0xff, 0xff, 0x08, 0x00, 0x00, 0x00, 0x10, 0x00, 0x00, 0x00, 0x01, 0x00, 0x00, 0x00, 
  0xf6, 0xff, 0xff, 0xff, 0xff, 0xff, 0xff, 0xff, 0x01, 0x00, 0x00, 0x00, 0x5f, 0xd5, 0xba, 0x3d, 
  0x30, 0x00, 0x00, 0x00, 0x73, 0x65, 0x71, 0x75, 0x65, 0x6e, 0x74, 0x69, 0x61, 0x6c, 0x2f, 0x64, 
  0x65, 0x6e, 0x73, 0x65, 0x2f, 0x4d, 0x61, 0x74, 0x4d, 0x75, 0x6c, 0x3b, 0x73, 0x65, 0x71, 0x75, 
  0x65, 0x6e, 0x74, 0x69, 0x61, 0x6c, 0x2f, 0x64, 0x65, 0x6e, 0x73, 0x65, 0x2f, 0x42, 0x69, 0x61, 
  0x73, 0x41, 0x64, 0x64, 0x00, 0x00, 0x00, 0x00, 0x02, 0x00, 0x00, 0x00, 0x01, 0x00, 0x00, 0x00, 
  0x01, 0x00, 0x00, 0x00, 0x0a, 0xf2, 0xff, 0xff, 0x00, 0x00, 0x00, 0x01, 0x18, 0x00, 0x00, 0x00, 
  0x20, 0x00, 0x00, 0x00, 0x3c, 0x00, 0x00, 0x00, 0x11, 0x00, 0x00, 0x00, 0x00, 0x00, 0x00, 0x09, 
  0x60, 0x00, 0x00, 0x00, 0x02, 0x00, 0x00, 0x00, 0xff, 0xff, 0xff, 0xff, 0x20, 0x00, 0x00, 0x00, 
  0xec, 0xf1, 0xff, 0xff, 0x08, 0x00, 0x00, 0x00, 0x10, 0x00, 0x00, 0x00, 0x01, 0x00, 0x00, 0x00, 
  0x80, 0xff, 0xff, 0xff, 0xff, 0xff, 0xff, 0xff, 0x01, 0x00, 0x00, 0x00, 0xef, 0x40, 0x83, 0x3c, 
  0x28, 0x00, 0x00, 0x00, 0x73, 0x65, 0x71, 0x75, 0x65, 0x6e, 0x74, 0x69, 0x61, 0x6c, 0x2f, 0x67, 
  0x6c, 0x6f, 0x62, 0x61, 0x6c, 0x5f, 0x61, 0x76, 0x65, 0x72, 0x61, 0x67, 0x65, 0x5f, 0x70, 0x6f, 
  0x6f, 0x6c, 0x69, 0x6e, 0x67, 0x32, 0x64, 0x2f, 0x4d, 0x65, 0x61, 0x6e, 0x00, 0x00, 0x00, 0x00, 
  0x02, 0x00, 0x00, 0x00, 0x01, 0x00, 0x00, 0x00, 0x20, 0x00, 0x00, 0x00, 0x92, 0xf2, 0xff, 0xff, 
  0x00, 0x00, 0x00, 0x01, 0x18, 0x00, 0x00, 0x00, 0x28, 0x00, 0x00, 0x00, 0x44, 0x00, 0x00, 0x00, 
  0x10, 0x00, 0x00, 0x00, 0x00, 0x00, 0x00, 0x09, 0x60, 0x00, 0x00, 0x00, 0x04, 0x00, 0x00, 0x00, 
  0xff, 0xff, 0xff, 0xff, 0x0c, 0x00, 0x00, 0x00, 0x0c, 0x00, 0x00, 0x00, 0x20, 0x00, 0x00, 0x00, 
  0x7c, 0xf2, 0xff, 0xff, 0x08, 0x00, 0x00, 0x00, 0x10, 0x00, 0x00, 0x00, 0x01, 0x00, 0x00, 0x00, 
  0x80, 0xff, 0xff, 0xff, 0xff, 0xff, 0xff, 0xff, 0x01, 0x00, 0x00, 0x00, 0xef, 0xa9, 0x2d, 0x3d, 
  0x22, 0x00, 0x00, 0x00, 0x73, 0x65, 0x71, 0x75, 0x65, 0x6e, 0x74, 0x69, 0x61, 0x6c, 0x2f, 0x6d, 
  0x61, 0x78, 0x5f, 0x70, 0x6f, 0x6f, 0x6c, 0x69, 0x6e, 0x67, 0x32, 0x64, 0x5f, 0x32, 0x2f, 0x4d, 
  0x61, 0x78, 0x50, 0x6f, 0x6f, 0x6c, 0x00, 0x00, 0x04, 0x00, 0x00, 0x00, 0x01, 0x00, 0x00, 0x00, 
  0x0c, 0x00, 0x00, 0x00, 0x0c, 0x00, 0x00, 0x00, 0x20, 0x00, 0x00, 0x00, 0x22, 0xf3, 0xff, 0xff, 
  0x00, 0x00, 0x00, 0x01, 0x18, 0x00, 0x00, 0x00, 0x28, 0x00, 0x00, 0x00, 0x44, 0x00, 0x00, 0x00, 
  0x0f, 0x00, 0x00, 0x00, 0x00, 0x00, 0x00, 0x09, 0xb8, 0x00, 0x00, 0x00, 0x04, 0x00, 0x00, 0x00, 
  0xff, 0xff, 0xff, 0xff, 0x18, 0x00, 0x00, 0x00, 0x18, 0x00, 0x00, 0x00, 0x20, 0x00, 0x00, 0x00, 
  0x0c, 0xf3, 0xff, 0xff, 0x08, 0x00, 0x00, 0x00, 0x10, 0x00, 0x00, 0x00, 0x01, 0x00, 0x00, 0x00, 
  0x80, 0xff, 0xff, 0xff, 0xff, 0xff, 0xff, 0xff, 0x01, 0x00, 0x00, 0x00, 0xef, 0xa9, 0x2d, 0x3d, 
  0x7a, 0x00, 0x00, 0x00, 0x73, 0x65, 0x71, 0x75, 0x65, 0x6e, 0x74, 0x69, 0x61, 0x6c, 0x2f, 0x63, 
  0x6f, 0x6e, 0x76, 0x32, 0x64, 0x5f, 0x32, 0x2f, 0x52, 0x65, 0x6c, 0x75, 0x3b, 0x73, 0x65, 0x71, 
  0x75, 0x65, 0x6e, 0x74, 0x69, 0x61, 0x6c, 0x2f, 0x63, 0x6f, 0x6e, 0x76, 0x32, 0x64, 0x5f, 0x32, 
  0x2f, 0x42, 0x69, 0x61, 0x73, 0x41, 0x64, 0x64, 0x3b, 0x73, 0x65, 0x71, 0x75, 0x65, 0x6e, 0x74, 
  0x69, 0x61, 0x6c, 0x2f, 0x63, 0x6f, 0x6e, 0x76, 0x32, 0x64, 0x5f, 0x32, 0x2f, 0x43, 0x6f, 0x6e, 
  0x76, 0x32, 0x44, 0x3b, 0x73, 0x65, 0x71, 0x75, 0x65, 0x6e, 0x74, 0x69, 0x61, 0x6c, 0x2f, 0x63, 
  0x6f, 0x6e, 0x76, 0x32, 0x64, 0x5f, 0x32, 0x2f, 0x42, 0x69, 0x61, 0x73, 0x41, 0x64, 0x64, 0x2f, 
  0x52, 0x65, 0x61, 0x64, 0x56, 0x61, 0x72, 0x69, 0x61, 0x62, 0x6c, 0x65, 0x4f, 0x70, 0x00, 0x00, 
  0x04, 0x00, 0x00, 0x00, 0x01, 0x00, 0x00, 0x00, 0x18, 0x00, 0x00, 0x00, 0x18, 0x00, 0x00, 0x00, 
  0x20, 0x00, 0x00, 0x00, 0x0a, 0xf4, 0xff, 0xff, 0x00, 0x00, 0x00, 0x01, 0x18, 0x00, 0x00, 0x00, 
  0x28, 0x00, 0x00, 0x00, 0x44, 0x00, 0x00, 0x00, 0x0e, 0x00, 0x00, 0x00, 0x00, 0x00, 0x00, 0x09, 
  0x60, 0x00, 0x00, 0x00, 0x04, 0x00, 0x00, 0x00, 0xff, 0xff, 0xff, 0xff, 0x18, 0x00, 0x00, 0x00, 
  0x18, 0x00, 0x00, 0x00, 0x10, 0x00, 0x00, 0x00, 0xf4, 0xf3, 0xff, 0xff, 0x08, 0x00, 0x00, 0x00, 
  0x10, 0x00, 0x00, 0x00, 0x01, 0x00, 0x00, 0x00, 0x80, 0xff, 0xff, 0xff, 0xff, 0xff, 0xff, 0xff, 
  0x01, 0x00, 0x00, 0x00, 0x05, 0xa7, 0x24, 0x3c, 0x22, 0x00, 0x00, 0x00, 0x73, 0x65, 0x71, 0x75, 
  0x65, 0x6e, 0x74, 0x69, 0x61, 0x6c, 0x2f, 0x6d, 0x61, 0x78, 0x5f, 0x70, 0x6f, 0x6f, 0x6c, 0x69, 
  0x6e, 0x67, 0x32, 0x64, 0x5f, 0x31, 0x2f, 0x4d, 0x61, 0x78, 0x50, 0x6f, 0x6f, 0x6c, 0x00, 0x00, 
  0x04, 0x00, 0x00, 0x00, 0x01, 0x00, 0x00, 0x00, 0x18, 0x00, 0x00, 0x00, 0x18, 0x00, 0x00, 0x00, 
  0x10, 0x00, 0x00, 0x00, 0x9a, 0xf4, 0xff, 0xff, 0x00, 0x00, 0x00, 0x01, 0x18, 0x00, 0x00, 0x00, 
  0x28, 0x00, 0x00, 0x00, 0x44, 0x00, 0x00, 0x00, 0x0d, 0x00, 0x00, 0x00, 0x00, 0x00, 0x00, 0x09, 
  0xb8, 0x00, 0x00, 0x00, 0x04, 0x00, 0x00, 0x00, 0xff, 0xff, 0xff, 0xff, 0x30, 0x00, 0x00, 0x00, 
  0x30, 0x00, 0x00, 0x00, 0x10, 0x00, 0x00, 0x00, 0x84, 0xf4, 0xff, 0xff, 0x08, 0x00, 0x00, 0x00, 
  0x10, 0x00, 0x00, 0x00, 0x01, 0x00, 0x00, 0x00, 0x80, 0xff, 0xff, 0xff, 0xff, 0xff, 0xff, 0xff, 
  0x01, 0x00, 0x00, 0x00, 0x05, 0xa7, 0x24, 0x3c, 0x7a, 0x00, 0x00, 0x00, 0x73, 0x65, 0x71, 0x75, 
  0x65, 0x6e, 0x74, 0x69, 0x61, 0x6c, 0x2f, 0x63, 0x6f, 0x6e, 0x76, 0x32, 0x64, 0x5f, 0x31, 0x2f, 
  0x52, 0x65, 0x6c, 0x75, 0x3b, 0x73, 0x65, 0x71, 0x75, 0x65, 0x6e, 0x74, 0x69, 0x61, 0x6c, 0x2f, 
  0x63, 0x6f, 0x6e, 0x76, 0x32, 0x64, 0x5f, 0x31, 0x2f, 0x42, 0x69, 0x61, 0x73, 0x41, 0x64, 0x64, 
  0x3b, 0x73, 0x65, 0x71, 0x75, 0x65, 0x6e, 0x74, 0x69, 0x61, 0x6c, 0x2f, 0x63, 0x6f, 0x6e, 0x76, 
  0x32, 0x64, 0x5f, 0x31, 0x2f, 0x43, 0x6f, 0x6e, 0x76, 0x32, 0x44, 0x3b, 0x73, 0x65, 0x71, 0x75, 
  0x65, 0x6e, 0x74, 0x69, 0x61, 0x6c, 0x2f, 0x63, 0x6f, 0x6e, 0x76, 0x32, 0x64, 0x5f, 0x31, 0x2f, 
  0x42, 0x69, 0x61, 0x73, 0x41, 0x64, 0x64, 0x2f, 0x52, 0x65, 0x61, 0x64, 0x56, 0x61, 0x72, 0x69, 
  0x61, 0x62, 0x6c, 0x65, 0x4f, 0x70, 0x00, 0x00, 0x04, 0x00, 0x00, 0x00, 0x01, 0x00, 0x00, 0x00, 
  0x30, 0x00, 0x00, 0x00, 0x30, 0x00, 0x00, 0x00, 0x10, 0x00, 0x00, 0x00, 0x82, 0xf5, 0xff, 0xff, 
  0x00, 0x00, 0x00, 0x01, 0x18, 0x00, 0x00, 0x00, 0x28, 0x00, 0x00, 0x00, 0x44, 0x00, 0x00, 0x00, 
  0x0c, 0x00, 0x00, 0x00, 0x00, 0x00, 0x00, 0x09, 0x60, 0x00, 0x00, 0x00, 0x04, 0x00, 0x00, 0x00, 
  0xff, 0xff, 0xff, 0xff, 0x30, 0x00, 0x00, 0x00, 0x30, 0x00, 0x00, 0x00, 0x08, 0x00, 0x00, 0x00, 
  0x6c, 0xf5, 0xff, 0xff, 0x08, 0x00, 0x00, 0x00, 0x10, 0x00, 0x00, 0x00, 0x01, 0x00, 0x00, 0x00, 
  0x80, 0xff, 0xff, 0xff, 0xff, 0xff, 0xff, 0xff, 0x01, 0x00, 0x00, 0x00, 0x7d, 0xee, 0x43, 0x3c, 
  0x20, 0x00, 0x00, 0x00, 0x73, 0x65, 0x71, 0x75, 0x65, 0x6e, 0x74, 0x69, 0x61, 0x6c, 0x2f, 0x6d, 
  0x61, 0x78, 0x5f, 0x70, 0x6f, 0x6f, 0x6c, 0x69, 0x6e, 0x67, 0x32, 0x64, 0x2f, 0x4d, 0x61, 0x78, 
  0x50, 0x6f, 0x6f, 0x6c, 0x00, 0x00, 0x00, 0x00, 0x04, 0x00, 0x00, 0x00, 0x01, 0x00, 0x00, 0x00, 
  0x30, 0x00, 0x00, 0x00, 0x30, 0x00, 0x00, 0x00, 0x08, 0x00, 0x00, 0x00, 0x12, 0xf6, 0xff, 0xff, 
  0x00, 0x00, 0x00, 0x01, 0x18, 0x00, 0x00, 0x00, 0x28, 0x00, 0x00, 0x00, 0x44, 0x00, 0x00, 0x00, 
  0x0b, 0x00, 0x00, 0x00, 0x00, 0x00, 0x00, 0x09, 0xb0, 0x00, 0x00, 0x00, 0x04, 0x00, 0x00, 0x00, 
  0xff, 0xff, 0xff, 0xff, 0x60, 0x00, 0x00, 0x00, 0x60, 0x00, 0x00, 0x00, 0x08, 0x00, 0x00, 0x00, 
  0xfc, 0xf5, 0xff, 0xff, 0x08, 0x00, 0x00, 0x00, 0x10, 0x00, 0x00, 0x00, 0x01, 0x00, 0x00, 0x00, 
  0x80, 0xff, 0xff, 0xff, 0xff, 0xff, 0xff, 0xff, 0x01, 0x00, 0x00, 0x00, 0x7d, 0xee, 0x43, 0x3c, 
  0x72, 0x00, 0x00, 0x00, 0x73, 0x65, 0x71, 0x75, 0x65, 0x6e, 0x74, 0x69, 0x61, 0x6c, 0x2f, 0x63, 
  0x6f, 0x6e, 0x76, 0x32, 0x64, 0x2f, 0x52, 0x65, 0x6c, 0x75, 0x3b, 0x73, 0x65, 0x71, 0x75, 0x65, 
  0x6e, 0x74, 0x69, 0x61, 0x6c, 0x2f, 0x63, 0x6f, 0x6e, 0x76, 0x32, 0x64, 0x2f, 0x42, 0x69, 0x61, 
  0x73, 0x41, 0x64, 0x64, 0x3b, 0x73, 0x65, 0x71, 0x75, 0x65, 0x6e, 0x74, 0x69, 0x61, 0x6c, 0x2f, 
  0x63, 0x6f, 0x6e, 0x76, 0x32, 0x64, 0x2f, 0x43, 0x6f, 0x6e, 0x76, 0x32, 0x44, 0x3b, 0x73, 0x65, 
  0x71, 0x75, 0x65, 0x6e, 0x74, 0x69, 0x61, 0x6c, 0x2f, 0x63, 0x6f, 0x6e, 0x76, 0x32, 0x64, 0x2f, 
  0x42, 0x69, 0x61, 0x73, 0x41, 0x64, 0x64, 0x2f, 0x52, 0x65, 0x61, 0x64, 0x56, 0x61, 0x72, 0x69, 
  0x61, 0x62, 0x6c, 0x65, 0x4f, 0x70, 0x00, 0x00, 0x04, 0x00, 0x00, 0x00, 0x01, 0x00, 0x00, 0x00, 
  0x60, 0x00, 0x00, 0x00, 0x60, 0x00, 0x00, 0x00, 0x08, 0x00, 0x00, 0x00, 0x76, 0xf7, 0xff, 0xff, 
  0x00, 0x00, 0x00, 0x01, 0x14, 0x00, 0x00, 0x00, 0x88, 0x00, 0x00, 0x00, 0x0a, 0x00, 0x00, 0x00, 
  0x00, 0x00, 0x00, 0x09, 0x9c, 0x00, 0x00, 0x00, 0xc4, 0xf6, 0xff, 0xff, 0x08, 0x00, 0x00, 0x00, 
  0x4c, 0x00, 0x00, 0x00, 0x08, 0x00, 0x00, 0x00, 0x00, 0x00, 0x00, 0x00, 0x00, 0x00, 0x00, 0x00, 
  0x00, 0x00, 0x00, 0x00, 0x00, 0x00, 0x00, 0x00, 0x00, 0x00, 0x00, 0x00, 0x00, 0x00, 0x00, 0x00, 
  0x00, 0x00, 0x00, 0x00, 0x00, 0x00, 0x00, 0x00, 0x00, 0x00, 0x00, 0x00, 0x00, 0x00, 0x00, 0x00, 
  0x00, 0x00, 0x00, 0x00, 0x00, 0x00, 0x00, 0x00, 0x00, 0x00, 0x00, 0x00, 0x00, 0x00, 0x00, 0x00, 
  0x00, 0x00, 0x00, 0x00, 0x00, 0x00, 0x00, 0x00, 0x00, 0x00, 0x00, 0x00, 0x08, 0x00, 0x00, 0x00, 
  0x7c, 0x58, 0x0d, 0x3b, 0x4a, 0xfb, 0x66, 0x3b, 0xb5, 0x5b, 0x06, 0x3b, 0xd5, 0xf6, 0x17, 0x3b, 
  0x1c, 0xc1, 0x54, 0x3a, 0xf8, 0x17, 0x83, 0x3b, 0x8f, 0xbb, 0x1b, 0x3b, 0x4c, 0x0c, 0x15, 0x3c, 
  0x18, 0x00, 0x00, 0x00, 0x73, 0x65, 0x71, 0x75, 0x65, 0x6e, 0x74, 0x69, 0x61, 0x6c, 0x2f, 0x63, 
  0x6f, 0x6e, 0x76, 0x32, 0x64, 0x2f, 0x43, 0x6f, 0x6e, 0x76, 0x32, 0x44, 0x00, 0x00, 0x00, 0x00, 
  0x04, 0x00, 0x00, 0x00, 0x08, 0x00, 0x00, 0x00, 0x03, 0x00, 0x00, 0x00, 0x03, 0x00, 0x00, 0x00, 
  0x01, 0x00, 0x00, 0x00, 0x3e, 0xf8, 0xff, 0xff, 0x00, 0x00, 0x00, 0x01, 0x14, 0x00, 0x00, 0x00, 
  0x84, 0x00, 0x00, 0x00, 0x09, 0x00, 0x00, 0x00, 0x00, 0x00, 0x00, 0x02, 0xa8, 0x00, 0x00, 0x00, 
  0x8c, 0xf7, 0xff, 0xff, 0x08, 0x00, 0x00, 0x00, 0x48, 0x00, 0x00, 0x00, 0x08, 0x00, 0x00, 0x00, 
  0x00, 0x00, 0x00, 0x00, 0x00, 0x00, 0x00, 0x00, 0x00, 0x00, 0x00, 0x00, 0x00, 0x00, 0x00, 0x00, 
  0x00, 0x00, 0x00, 0x00, 0x00, 0x00, 0x00, 0x00, 0x00, 0x00, 0x00, 0x00, 0x00, 0x00, 0x00, 0x00, 
  0x00, 0x00, 0x00, 0x00, 0x00, 0x00, 0x00, 0x00, 0x00, 0x00, 0x00, 0x00, 0x00, 0x00, 0x00, 0x00, 
  0x00, 0x00, 0x00, 0x00, 0x00, 0x00, 0x00, 0x00, 0x00, 0x00, 0x00, 0x00, 0x00, 0x00, 0x00, 0x00, 
  0x08, 0x00, 0x00, 0x00, 0x63, 0xe6, 0x0d, 0x37, 0x2e, 0xe3, 0x67, 0x37, 0x98, 0xe2, 0x06, 0x37, 
  0x65, 0x8f, 0x18, 0x37, 0xb4, 0x96, 0x55, 0x36, 0x94, 0x9b, 0x83, 0x37, 0xe8, 0x57, 0x1c, 0x37, 
  0xef, 0xa1, 0x15, 0x38, 0x28, 0x00, 0x00, 0x00, 0x73, 0x65, 0x71, 0x75, 0x65, 0x6e, 0x74, 0x69, 
  0x61, 0x6c, 0x2f, 0x63, 0x6f, 0x6e, 0x76, 0x32, 0x64, 0x2f, 0x42, 0x69, 0x61, 0x73, 0x41, 0x64, 
  0x64, 0x2f, 0x52, 0x65, 0x61, 0x64, 0x56, 0x61, 0x72, 0x69, 0x61, 0x62, 0x6c, 0x65, 0x4f, 0x70, 
  0x00, 0x00, 0x00, 0x00, 0x01, 0x00, 0x00, 0x00, 0x08, 0x00, 0x00, 0x00, 0x06, 0xf9, 0xff, 0xff, 
  0x00, 0x00, 0x00, 0x01, 0x14, 0x00, 0x00, 0x00, 0xe8, 0x00, 0x00, 0x00, 0x08, 0x00, 0x00, 0x00, 
  0x00, 0x00, 0x00, 0x09, 0xfc, 0x00, 0x00, 0x00, 0x54, 0xf8, 0xff, 0xff, 0x08, 0x00, 0x00, 0x00, 
  0x8c, 0x00, 0x00, 0x00, 0x10, 0x00, 0x00, 0x00, 0x00, 0x00, 0x00, 0x00, 0x00, 0x00, 0x00, 0x00, 
  0x00, 0x00, 0x00, 0x00, 0x00, 0x00, 0x00, 0x00, 0x00, 0x00, 0x00, 0x00, 0x00, 0x00, 0x00, 0x00, 
  0x00, 0x00, 0x00, 0x00, 0x00, 0x00, 0x00, 0x00, 0x00, 0x00, 0x00, 0x00, 0x00, 0x00, 0x00, 0x00, 
  0x00, 0x00, 0x00, 0x00, 0x00, 0x00, 0x00, 0x00, 0x00, 0x00, 0x00, 0x00, 0x00, 0x00, 0x00, 0x00, 
  0x00, 0x00, 0x00, 0x00, 0x00, 0x00, 0x00, 0x00, 0x00, 0x00, 0x00, 0x00, 0x00, 0x00, 0x00, 0x00, 
  0x00, 0x00, 0x00, 0x00, 0x00, 0x00, 0x00, 0x00, 0x00, 0x00, 0x00, 0x00, 0x00, 0x00, 0x00, 0x00, 
  0x00, 0x00, 0x00, 0x00, 0x00, 0x00, 0x00, 0x00, 0x00, 0x00, 0x00, 0x00, 0x00, 0x00, 0x00, 0x00, 
  0x00, 0x00, 0x00, 0x00, 0x00, 0x00, 0x00, 0x00, 0x00, 0x00, 0x00, 0x00, 0x00, 0x00, 0x00, 0x00, 
  0x00, 0x00, 0x00, 0x00, 0x00, 0x00, 0x00, 0x00, 0x00, 0x00, 0x00, 0x00, 0x10, 0x00, 0x00, 0x00, 
  0x11, 0xf2, 0xc7, 0x3b, 0x85, 0x71, 0x1c, 0x3c, 0x47, 0x02, 0x99, 0x3b, 0x4d, 0x7c, 0x93, 0x3b, 
  0x51, 0xd7, 0x86, 0x3b, 0x93, 0xa7, 0x8f, 0x3b, 0x61, 0x43, 0xad, 0x3b, 0xdc, 0x6e, 0xad, 0x3b, 
  0xee, 0x6c, 0xb1, 0x3b, 0x78, 0x87, 0x8d, 0x3b, 0x5d, 0x9f, 0xc4, 0x3b, 0xdc, 0xa1, 0xd1, 0x3b, 
  0x74, 0x77, 0x97, 0x3b, 0x73, 0x07, 0x13, 0x3c, 0x76, 0xe5, 0x9c, 0x3b, 0xba, 0x72, 0xde, 0x3b, 
  0x1a, 0x00, 0x00, 0x00, 0x73, 0x65, 0x71, 0x75, 0x65, 0x6e, 0x74, 0x69, 0x61, 0x6c, 0x2f, 0x63, 
  0x6f, 0x6e, 0x76, 0x32, 0x64, 0x5f, 0x31, 0x2f, 0x43, 0x6f, 0x6e, 0x76, 0x32, 0x44, 0x00, 0x00, 
  0x04, 0x00, 0x00, 0x00, 0x10, 0x00, 0x00, 0x00, 0x03, 0x00, 0x00, 0x00, 0x03, 0x00, 0x00, 0x00, 
  0x08, 0x00, 0x00, 0x00, 0x2e, 0xfa, 0xff, 0xff, 0x00, 0x00, 0x00, 0x01, 0x14, 0x00, 0x00, 0x00, 
  0xe4, 0x00, 0x00, 0x00, 0x07, 0x00, 0x00, 0x00, 0x00, 0x00, 0x00, 0x02, 0x08, 0x01, 0x00, 0x00, 
  0x7c, 0xf9, 0xff, 0xff, 0x08, 0x00, 0x00, 0x00, 0x88, 0x00, 0x00, 0x00, 0x10, 0x00, 0x00, 0x00, 
  0x00, 0x00, 0x00, 0x00, 0x00, 0x00, 0x00, 0x00, 0x00, 0x00, 0x00, 0x00, 0x00, 0x00, 0x00, 0x00, 
  0x00, 0x00, 0x00, 0x00, 0x00, 0x00, 0x00, 0x00, 0x00, 0x00, 0x00, 0x00, 0x00, 0x00, 0x00, 0x00, 
  0x00, 0x00, 0x00, 0x00, 0x00, 0x00, 0x00, 0x00, 0x00, 0x00, 0x00, 0x00, 0x00, 0x00, 0x00, 0x00, 
  0x00, 0x00, 0x00, 0x00, 0x00, 0x00, 0x00, 0x00, 0x00, 0x00, 0x00, 0x00, 0x00, 0x00, 0x00, 0x00, 
  0x00, 0x00, 0x00, 0x00, 0x00, 0x00, 0x00, 0x00, 0x00, 0x00, 0x00, 0x00, 0x00, 0x00, 0x00, 0x00, 
  0x00, 0x00, 0x00, 0x00, 0x00, 0x00, 0x00, 0x00, 0x00, 0x00, 0x00, 0x00, 0x00, 0x00, 0x00, 0x00, 
  0x00, 0x00, 0x00, 0x00, 0x00, 0x00, 0x00, 0x00, 0x00, 0x00, 0x00, 0x00, 0x00, 0x00, 0x00, 0x00, 
  0x00, 0x00, 0x00, 0x00, 0x00, 0x00, 0x00, 0x00, 0x00, 0x00, 0x00, 0x00, 0x00, 0x00, 0x00, 0x00, 
  0x10, 0x00, 0x00, 0x00, 0xa8, 0x07, 0x99, 0x38, 0x6c, 0x78, 0xef, 0x38, 0x8e, 0x36, 0x6a, 0x38, 
  0x28, 0xc2, 0x61, 0x38, 0x41, 0x67, 0x4e, 0x38, 0xf2, 0xe4, 0x5b, 0x38, 0xbc, 0x9b, 0x84, 0x38, 
  0x03, 0xbd, 0x84, 0x38, 0x43, 0xcb, 0x87, 0x38, 0x13, 0xa4, 0x58, 0x38, 0x90, 0x7c, 0x96, 0x38, 
  0x95, 0x71, 0xa0, 0x38, 0x31, 0xda, 0x67, 0x38, 0x4b, 0x0f, 0xe1, 0x38, 0xe6, 0x29, 0x70, 0x38, 
  0x9f, 0x40, 0xaa, 0x38, 0x2a, 0x00, 0x00, 0x00, 0x73, 0x65, 0x71, 0x75, 0x65, 0x6e, 0x74, 0x69, 
  0x61, 0x6c, 0x2f, 0x63, 0x6f, 0x6e, 0x76, 0x32, 0x64, 0x5f, 0x31, 0x2f, 0x42, 0x69, 0x61, 0x73, 
  0x41, 0x64, 0x64, 0x2f, 0x52, 0x65, 0x61, 0x64, 0x56, 0x61, 0x72, 0x69, 0x61, 0x62, 0x6c, 0x65, 
  0x4f, 0x70, 0x00, 0x00, 0x01, 0x00, 0x00, 0x00, 0x10, 0x00, 0x00, 0x00, 0x56, 0xfb, 0xff, 0xff, 
  0x00, 0x00, 0x00, 0x01, 0x14, 0x00, 0x00, 0x00, 0xa8, 0x01, 0x00, 0x00, 0x06, 0x00, 0x00, 0x00, 
  0x00, 0x00, 0x00, 0x09, 0xbc, 0x01, 0x00, 0x00, 0xa4, 0xfa, 0xff, 0xff, 0x08, 0x00, 0x00, 0x00, 
  0x0c, 0x01, 0x00, 0x00, 0x20, 0x00, 0x00, 0x00, 0x00, 0x00, 0x00, 0x00, 0x00, 0x00, 0x00, 0x00, 
  0x00, 0x00, 0x00, 0x00, 0x00, 0x00, 0x00, 0x00, 0x00, 0x00, 0x00, 0x00, 0x00, 0x00, 0x00, 0x00, 
  0x00, 0x00, 0x00, 0x00, 0x00, 0x00, 0x00, 0x00, 0x00, 0x00, 0x00, 0x00, 0x00, 0x00, 0x00, 0x00, 
  0x00, 0x00, 0x00, 0x00, 0x00, 0x00, 0x00, 0x00, 0x00, 0x00, 0x00, 0x00, 0x00, 0x00, 0x00, 0x00, 
  0x00, 0x00, 0x00, 0x00, 0x00, 0x00, 0x00, 0x00, 0x00, 0x00, 0x00, 0x00, 0x00, 0x00, 0x00, 0x00, 
  0x00, 0x00, 0x00, 0x00, 0x00, 0x00, 0x00, 0x00, 0x00, 0x00, 0x00, 0x00, 0x00, 0x00, 0x00, 0x00, 
  0x00, 0x00, 0x00, 0x00, 0x00, 0x00, 0x00, 0x00, 0x00, 0x00, 0x00, 0x00, 0x00, 0x00, 0x00, 0x00, 
  0x00, 0x00, 0x00, 0x00, 0x00, 0x00, 0x00, 0x00, 0x00, 0x00, 0x00, 0x00, 0x00, 0x00, 0x00, 0x00, 
  0x00, 0x00, 0x00, 0x00, 0x00, 0x00, 0x00, 0x00, 0x00, 0x00, 0x00, 0x00, 0x00, 0x00, 0x00, 0x00, 
  0x00, 0x00, 0x00, 0x00, 0x00, 0x00, 0x00, 0x00, 0x00, 0x00, 0x00, 0x00, 0x00, 0x00, 0x00, 0x00, 
  0x00, 0x00, 0x00, 0x00, 0x00, 0x00, 0x00, 0x00, 0x00, 0x00, 0x00, 0x00, 0x00, 0x00, 0x00, 0x00, 
  0x00, 0x00, 0x00, 0x00, 0x00, 0x00, 0x00, 0x00, 0x00, 0x00, 0x00, 0x00, 0x00, 0x00, 0x00, 0x00, 
  0x00, 0x00, 0x00, 0x00, 0x00, 0x00, 0x00, 0x00, 0x00, 0x00, 0x00, 0x00, 0x00, 0x00, 0x00, 0x00, 
  0x00, 0x00, 0x00, 0x00, 0x00, 0x00, 0x00, 0x00, 0x00, 0x00, 0x00, 0x00, 0x00, 0x00, 0x00, 0x00, 
  0x00, 0x00, 0x00, 0x00, 0x00, 0x00, 0x00, 0x00, 0x00, 0x00, 0x00, 0x00, 0x00, 0x00, 0x00, 0x00, 
  0x00, 0x00, 0x00, 0x00, 0x00, 0x00, 0x00, 0x00, 0x00, 0x00, 0x00, 0x00, 0x00, 0x00, 0x00, 0x00, 
  0x00, 0x00, 0x00, 0x00, 0x00, 0x00, 0x00, 0x00, 0x00, 0x00, 0x00, 0x00, 0x20, 0x00, 0x00, 0x00, 
  0xd0, 0x39, 0x86, 0x3b, 0x5a, 0x5b, 0x94, 0x3b, 0x7b, 0x44, 0x7c, 0x3b, 0xa9, 0xe1, 0x91, 0x3b, 
  0x31, 0xb7, 0x89, 0x3b, 0xf1, 0x86, 0x84, 0x3b, 0x8d, 0x09, 0x8d, 0x3b, 0x14, 0x60, 0x94, 0x3b, 
  0x72, 0x1c, 0x80, 0x3b, 0x6b, 0x72, 0xa1, 0x3b, 0x52, 0x56, 0x99, 0x3a, 0x3a, 0x45, 0x8d, 0x3b, 
  0x51, 0xa4, 0xac, 0x3b, 0xbb, 0xd6, 0x90, 0x3b, 0x06, 0x24, 0x8b, 0x3b, 0x53, 0xd1, 0x8c, 0x3b, 
  0xac, 0x82, 0x80, 0x3a, 0xdf, 0x01, 0x95, 0x3b, 0x3e, 0x37, 0x8f, 0x3b, 0x1c, 0x72, 0x73, 0x3b, 
  0x51, 0xb5, 0x92, 0x3b, 0xd9, 0xcc, 0x96, 0x3b, 0xff, 0xc8, 0x74, 0x3b, 0x0a, 0x4d, 0x90, 0x3b, 
  0xd7, 0xe5, 0x8f, 0x3b, 0xae, 0x1b, 0x9a, 0x3b, 0x57, 0xeb, 0x98, 0x3b, 0x52, 0x96, 0x9e, 0x3b, 
  0xea, 0x97, 0xa2, 0x3a, 0x55, 0xc4, 0x85, 0x3a, 0xae, 0x7d, 0x72, 0x3b, 0x9c, 0x6f, 0x8b, 0x3b, 
  0x1a, 0x00, 0x00, 0x00, 0x73, 0x65, 0x71, 0x75, 0x65, 0x6e, 0x74, 0x69, 0x61, 0x6c, 0x2f, 0x63, 
  0x6f, 0x6e, 0x76, 0x32, 0x64, 0x5f, 0x32, 0x2f, 0x43, 0x6f, 0x6e, 0x76, 0x32, 0x44, 0x00, 0x00, 
  0x04, 0x00, 0x00, 0x00, 0x20, 0x00, 0x00, 0x00, 0x03, 0x00, 0x00, 0x00, 0x03, 0x00, 0x00, 0x00, 
  0x10, 0x00, 0x00, 0x00, 0x3e, 0xfd, 0xff, 0xff, 0x00, 0x00, 0x00, 0x01, 0x14, 0x00, 0x00, 0x00, 
  0xa4, 0x01, 0x00, 0x00, 0x05, 0x00, 0x00, 0x00, 0x00, 0x00, 0x00, 0x02, 0xc8, 0x01, 0x00, 0x00, 
  0x8c, 0xfc, 0xff, 0xff, 0x08, 0x00, 0x00, 0x00, 0x08, 0x01, 0x00, 0x00, 0x20, 0x00, 0x00, 0x00, 
  0x00, 0x00, 0x00, 0x00, 0x00, 0x00, 0x00, 0x00, 0x00, 0x00, 0x00, 0x00, 0x00, 0x00, 0x00, 0x00, 
  0x00, 0x00, 0x00, 0x00, 0x00, 0x00, 0x00, 0x00, 0x00, 0x00, 0x00, 0x00, 0x00, 0x00, 0x00, 0x00, 
  0x00, 0x00, 0x00, 0x00, 0x00, 0x00, 0x00, 0x00, 0x00, 0x00, 0x00, 0x00, 0x00, 0x00, 0x00, 0x00, 
  0x00, 0x00, 0x00, 0x00, 0x00, 0x00, 0x00, 0x00, 0x00, 0x00, 0x00, 0x00, 0x00, 0x00, 0x00, 0x00, 
  0x00, 0x00, 0x00, 0x00, 0x00, 0x00, 0x00, 0x00, 0x00, 0x00, 0x00, 0x00, 0x00, 0x00, 0x00, 0x00, 
  0x00, 0x00, 0x00, 0x00, 0x00, 0x00, 0x00, 0x00, 0x00, 0x00, 0x00, 0x00, 0x00, 0x00, 0x00, 0x00, 
  0x00, 0x00, 0x00, 0x00, 0x00, 0x00, 0x00, 0x00, 0x00, 0x00, 0x00, 0x00, 0x00, 0x00, 0x00, 0x00, 
  0x00, 0x00, 0x00, 0x00, 0x00, 0x00, 0x00, 0x00, 0x00, 0x00, 0x00, 0x00, 0x00, 0x00, 0x00, 0x00, 
  0x00, 0x00, 0x00, 0x00, 0x00, 0x00, 0x00, 0x00, 0x00, 0x00, 0x00, 0x00, 0x00, 0x00, 0x00, 0x00, 
  0x00, 0x00, 0x00, 0x00, 0x00, 0x00, 0x00, 0x00, 0x00, 0x00, 0x00, 0x00, 0x00, 0x00, 0x00, 0x00, 
  0x00, 0x00, 0x00, 0x00, 0x00, 0x00, 0x00, 0x00, 0x00, 0x00, 0x00, 0x00, 0x00, 0x00, 0x00, 0x00, 
  0x00, 0x00, 0x00, 0x00, 0x00, 0x00, 0x00, 0x00, 0x00, 0x00, 0x00, 0x00, 0x00, 0x00, 0x00, 0x00, 
  0x00, 0x00, 0x00, 0x00, 0x00, 0x00, 0x00, 0x00, 0x00, 0x00, 0x00, 0x00, 0x00, 0x00, 0x00, 0x00, 
  0x00, 0x00, 0x00, 0x00, 0x00, 0x00, 0x00, 0x00, 0x00, 0x00, 0x00, 0x00, 0x00, 0x00, 0x00, 0x00, 
  0x00, 0x00, 0x00, 0x00, 0x00, 0x00, 0x00, 0x00, 0x00, 0x00, 0x00, 0x00, 0x00, 0x00, 0x00, 0x00, 
  0x00, 0x00, 0x00, 0x00, 0x00, 0x00, 0x00, 0x00, 0x00, 0x00, 0x00, 0x00, 0x00, 0x00, 0x00, 0x00, 
  0x20, 0x00, 0x00, 0x00, 0x37, 0xa9, 0x2c, 0x38, 0xa0, 0xd6, 0x3e, 0x38, 0x74, 0x40, 0x22, 0x38, 
  0x7b, 0xa7, 0x3b, 0x38, 0x69, 0x26, 0x31, 0x38, 0xd2, 0x79, 0x2a, 0x38, 0x45, 0x6c, 0x35, 0x38, 
  0xb5, 0xdc, 0x3e, 0x38, 0x9c, 0xcb, 0x24, 0x38, 0x43, 0xad, 0x4f, 0x38, 0xae, 0x3e, 0x45, 0x37, 
  0x08, 0xb9, 0x35, 0x38, 0xcd, 0x13, 0x5e, 0x38, 0x1d, 0x50, 0x3a, 0x38, 0xb6, 0xfb, 0x32, 0x38, 
  0xf1, 0x23, 0x35, 0x38, 0x1c, 0x4f, 0x25, 0x37, 0xd4, 0xac, 0x3f, 0x38, 0xa7, 0x39, 0x38, 0x38, 
  0xee, 0x93, 0x1c, 0x38, 0xbe, 0xb7, 0x3c, 0x38, 0x3b, 0xfb, 0x41, 0x38, 0x77, 0x70, 0x1d, 0x38, 
  0xff, 0x9e, 0x39, 0x38, 0x3f, 0x1a, 0x39, 0x38, 0x8d, 0x3c, 0x46, 0x38, 0x10, 0xb5, 0x44, 0x38, 
  0x87, 0xff, 0x4b, 0x38, 0xcc, 0x26, 0x51, 0x37, 0x18, 0x12, 0x2c, 0x37, 0xb8, 0xf6, 0x1b, 0x38, 
  0xf1, 0x5c, 0x33, 0x38, 0x2a, 0x00, 0x00, 0x00, 0x73, 0x65, 0x71, 0x75, 0x65, 0x6e, 0x74, 0x69, 
  0x61, 0x6c, 0x2f, 0x63, 0x6f, 0x6e, 0x76, 0x32, 0x64, 0x5f, 0x32, 0x2f, 0x42, 0x69, 0x61, 0x73, 
  0x41, 0x64, 0x64, 0x2f, 0x52, 0x65, 0x61, 0x64, 0x56, 0x61, 0x72, 0x69, 0x61, 0x62, 0x6c, 0x65, 
  0x4f, 0x70, 0x00, 0x00, 0x01, 0x00, 0x00, 0x00, 0x20, 0x00, 0x00, 0x00, 0x26, 0xff, 0xff, 0xff, 
  0x00, 0x00, 0x00, 0x01, 0x14, 0x00, 0x00, 0x00, 0x34, 0x00, 0x00, 0x00, 0x04, 0x00, 0x00, 0x00, 
  0x00, 0x00, 0x00, 0x09, 0x44, 0x00, 0x00, 0x00, 0x74, 0xfe, 0xff, 0xff, 0x08, 0x00, 0x00, 0x00, 
  0x14, 0x00, 0x00, 0x00, 0x01, 0x00, 0x00, 0x00, 0x00, 0x00, 0x00, 0x00, 0x00, 0x00, 0x00, 0x00, 
  0x00, 0x00, 0x00, 0x00, 0x01, 0x00, 0x00, 0x00, 0xe1, 0x16, 0xbc, 0x3b, 0x17, 0x00, 0x00, 0x00, 
  0x73, 0x65, 0x71, 0x75, 0x65, 0x6e, 0x74, 0x69, 0x61, 0x6c, 0x2f, 0x64, 0x65, 0x6e, 0x73, 0x65, 
  0x2f, 0x4d, 0x61, 0x74, 0x4d, 0x75, 0x6c, 0x00, 0x02, 0x00, 0x00, 0x00, 0x01, 0x00, 0x00, 0x00, 
  0x20, 0x00, 0x00, 0x00, 0x8e, 0xff, 0xff, 0xff, 0x00, 0x00, 0x00, 0x01, 0x14, 0x00, 0x00, 0x00, 
  0x30, 0x00, 0x00, 0x00, 0x03, 0x00, 0x00, 0x00, 0x00, 0x00, 0x00, 0x02, 0x50, 0x00, 0x00, 0x00, 
  0xdc, 0xfe, 0xff, 0xff, 0x08, 0x00, 0x00, 0x00, 0x10, 0x00, 0x00, 0x00, 0x01, 0x00, 0x00, 0x00, 
  0x00, 0x00, 0x00, 0x00, 0x00, 0x00, 0x00, 0x00, 0x01, 0x00, 0x00, 0x00, 0xd5, 0xde, 0xc0, 0x38, 
  0x27, 0x00, 0x00, 0x00, 0x73, 0x65, 0x71, 0x75, 0x65, 0x6e, 0x74, 0x69, 0x61, 0x6c, 0x2f, 0x64, 
  0x65, 0x6e, 0x73, 0x65, 0x2f, 0x42, 0x69, 0x61, 0x73, 0x41, 0x64, 0x64, 0x2f, 0x52, 0x65, 0x61, 
  0x64, 0x56, 0x61, 0x72, 0x69, 0x61, 0x62, 0x6c, 0x65, 0x4f, 0x70, 0x00, 0x01, 0x00, 0x00, 0x00, 
  0x01, 0x00, 0x00, 0x00, 0x00, 0x00, 0x16, 0x00, 0x1c, 0x00, 0x18, 0x00, 0x17, 0x00, 0x10, 0x00, 
  0x0c, 0x00, 0x08, 0x00, 0x00, 0x00, 0x00, 0x00, 0x00, 0x00, 0x07, 0x00, 0x16, 0x00, 0x00, 0x00, 
  0x00, 0x00, 0x00, 0x01, 0x18, 0x00, 0x00, 0x00, 0x18, 0x00, 0x00, 0x00, 0x02, 0x00, 0x00, 0x00, 
  0x00, 0x00, 0x00, 0x02, 0x4c, 0x00, 0x00, 0x00, 0x04, 0x00, 0x04, 0x00, 0x04, 0x00, 0x00, 0x00, 
  0x3a, 0x00, 0x00, 0x00, 0x73, 0x65, 0x71, 0x75, 0x65, 0x6e, 0x74, 0x69, 0x61, 0x6c, 0x2f, 0x67, 
  0x6c, 0x6f, 0x62, 0x61, 0x6c, 0x5f, 0x61, 0x76, 0x65, 0x72, 0x61, 0x67, 0x65, 0x5f, 0x70, 0x6f, 
  0x6f, 0x6c, 0x69, 0x6e, 0x67, 0x32, 0x64, 0x2f, 0x4d, 0x65, 0x61, 0x6e, 0x2f, 0x72, 0x65, 0x64, 
  0x75, 0x63, 0x74, 0x69, 0x6f, 0x6e, 0x5f, 0x69, 0x6e, 0x64, 0x69, 0x63, 0x65, 0x73, 0x00, 0x00, 
  0x01, 0x00, 0x00, 0x00, 0x02, 0x00, 0x00, 0x00, 0x00, 0x00, 0x16, 0x00, 0x20, 0x00, 0x1c, 0x00, 
  0x1b, 0x00, 0x14, 0x00, 0x10, 0x00, 0x0c, 0x00, 0x00, 0x00, 0x00, 0x00, 0x08, 0x00, 0x07, 0x00, 
  0x16, 0x00, 0x00, 0x00, 0x00, 0x00, 0x00, 0x01, 0x18, 0x00, 0x00, 0x00, 0x34, 0x00, 0x00, 0x00, 
  0x50, 0x00, 0x00, 0x00, 0x01, 0x00, 0x00, 0x00, 0x00, 0x00, 0x00, 0x09, 0x64, 0x00, 0x00, 0x00, 
  0x04, 0x00, 0x00, 0x00, 0xff, 0xff, 0xff, 0xff, 0x60, 0x00, 0x00, 0x00, 0x60, 0x00, 0x00, 0x00, 
  0x01, 0x00, 0x00, 0x00, 0x0c, 0x00, 0x0c, 0x00, 0x00, 0x00, 0x00, 0x00, 0x08, 0x00, 0x04, 0x00, 
  0x0c, 0x00, 0x00, 0x00, 0x08, 0x00, 0x00, 0x00, 0x10, 0x00, 0x00, 0x00, 0x01, 0x00, 0x00, 0x00, 
  0x80, 0xff, 0xff, 0xff, 0xff, 0xff, 0xff, 0xff, 0x01, 0x00, 0x00, 0x00, 0x81, 0x80, 0x80, 0x3b, 
  0x19, 0x00, 0x00, 0x00, 0x73, 0x65, 0x72, 0x76, 0x69, 0x6e, 0x67, 0x5f, 0x64, 0x65, 0x66, 0x61, 
  0x75, 0x6c, 0x74, 0x5f, 0x69, 0x6e, 0x70, 0x75, 0x74, 0x5f, 0x31, 0x3a, 0x30, 0x00, 0x00, 0x00, 
  0x04, 0x00, 0x00, 0x00, 0x01, 0x00, 0x00, 0x00, 0x60, 0x00, 0x00, 0x00, 0x60, 0x00, 0x00, 0x00, 
  0x01, 0x00, 0x00, 0x00, 0x05, 0x00, 0x00, 0x00, 0x60, 0x00, 0x00, 0x00, 0x40, 0x00, 0x00, 0x00, 
  0x2c, 0x00, 0x00, 0x00, 0x18, 0x00, 0x00, 0x00, 0x04, 0x00, 0x00, 0x00, 0xc0, 0xff, 0xff, 0xff, 
  0x0e, 0x00, 0x00, 0x00, 0x02, 0x00, 0x00, 0x00, 0x00, 0x00, 0x00, 0x0e, 0xd0, 0xff, 0xff, 0xff, 
  0x09, 0x00, 0x00, 0x00, 0x04, 0x00, 0x00, 0x00, 0x00, 0x00, 0x00, 0x09, 0xe0, 0xff, 0xff, 0xff, 
  0x28, 0x00, 0x00, 0x00, 0x02, 0x00, 0x00, 0x00, 0x00, 0x00, 0x00, 0x28, 0xf0, 0xff, 0xff, 0xff, 
  0x11, 0x00, 0x00, 0x00, 0x02, 0x00, 0x00, 0x00, 0x00, 0x00, 0x00, 0x11, 0x0c, 0x00, 0x10, 0x00, 
  0x0f, 0x00, 0x00, 0x00, 0x08, 0x00, 0x04, 0x00, 0x0c, 0x00, 0x00, 0x00, 0x03, 0x00, 0x00, 0x00, 
  0x03, 0x00, 0x00, 0x00, 0x00, 0x00, 0x00, 0x03, 
};

const size_t open_hand_model_data_len = 11656;

#endif  // OPEN_HAND_MODEL_DATA_H_
